unsigned char _content_midterm_project_model_model_tflite[] = {
  0x08, 0x00, 0x00, 0x00, 0x54, 0x46, 0x4c, 0x33, 0x62, 0xff, 0xff, 0xff,
  0x03, 0x00, 0x00, 0x00, 0x10, 0x00, 0x00, 0x00, 0x24, 0x00, 0x00, 0x00,
  0x78, 0x00, 0x00, 0x00, 0x24, 0x00, 0x00, 0x00, 0x05, 0x00, 0x00, 0x00,
  0x78, 0x05, 0x00, 0x00, 0xb0, 0x04, 0x00, 0x00, 0xe0, 0x02, 0x00, 0x00,
  0x60, 0x02, 0x00, 0x00, 0x54, 0x01, 0x00, 0x00, 0x01, 0x00, 0x00, 0x00,
  0x78, 0x00, 0x00, 0x00, 0x13, 0x00, 0x00, 0x00, 0xd4, 0x2f, 0x00, 0x00,
  0xd0, 0x2f, 0x00, 0x00, 0xdc, 0x2e, 0x00, 0x00, 0x68, 0x2e, 0x00, 0x00,
  0xfc, 0x2d, 0x00, 0x00, 0xac, 0x11, 0x00, 0x00, 0x98, 0x10, 0x00, 0x00,
  0xbc, 0x0e, 0x00, 0x00, 0x60, 0x06, 0x00, 0x00, 0xfc, 0x05, 0x00, 0x00,
  0x78, 0x05, 0x00, 0x00, 0xa8, 0x2f, 0x00, 0x00, 0xa4, 0x2f, 0x00, 0x00,
  0xa0, 0x2f, 0x00, 0x00, 0x9c, 0x2f, 0x00, 0x00, 0x98, 0x2f, 0x00, 0x00,
  0x94, 0x2f, 0x00, 0x00, 0x90, 0x2f, 0x00, 0x00, 0x8c, 0x2f, 0x00, 0x00,
  0x0f, 0x00, 0x00, 0x00, 0x4d, 0x4c, 0x49, 0x52, 0x20, 0x43, 0x6f, 0x6e,
  0x76, 0x65, 0x72, 0x74, 0x65, 0x64, 0x2e, 0x00, 0x00, 0x00, 0x0e, 0x00,
  0x18, 0x00, 0x04, 0x00, 0x08, 0x00, 0x0c, 0x00, 0x10, 0x00, 0x14, 0x00,
  0x0e, 0x00, 0x00, 0x00, 0x14, 0x00, 0x00, 0x00, 0x5c, 0x00, 0x00, 0x00,
  0x60, 0x00, 0x00, 0x00, 0x64, 0x00, 0x00, 0x00, 0x84, 0x00, 0x00, 0x00,
  0x12, 0x00, 0x00, 0x00, 0x04, 0x2f, 0x00, 0x00, 0xa0, 0x2e, 0x00, 0x00,
  0xf8, 0x2d, 0x00, 0x00, 0x98, 0x2d, 0x00, 0x00, 0x30, 0x2d, 0x00, 0x00,
  0xdc, 0x10, 0x00, 0x00, 0xc0, 0x0f, 0x00, 0x00, 0xe4, 0x0d, 0x00, 0x00,
  0xa0, 0x05, 0x00, 0x00, 0x3c, 0x05, 0x00, 0x00, 0xb0, 0x04, 0x00, 0x00,
  0xe8, 0x03, 0x00, 0x00, 0x38, 0x03, 0x00, 0x00, 0xa4, 0x02, 0x00, 0x00,
  0x10, 0x02, 0x00, 0x00, 0x90, 0x01, 0x00, 0x00, 0xfc, 0x00, 0x00, 0x00,
  0x80, 0x00, 0x00, 0x00, 0x01, 0x00, 0x00, 0x00, 0x00, 0x00, 0x00, 0x00,
  0x01, 0x00, 0x00, 0x00, 0x11, 0x00, 0x00, 0x00, 0x08, 0x00, 0x00, 0x00,
  0x1c, 0x04, 0x00, 0x00, 0x58, 0x03, 0x00, 0x00, 0xc8, 0x02, 0x00, 0x00,
  0x24, 0x02, 0x00, 0x00, 0xac, 0x01, 0x00, 0x00, 0x10, 0x01, 0x00, 0x00,
  0x94, 0x00, 0x00, 0x00, 0x10, 0x00, 0x00, 0x00, 0x04, 0x00, 0x00, 0x00,
  0x6d, 0x61, 0x69, 0x6e, 0x00, 0x00, 0x00, 0x00, 0x8e, 0xff, 0xff, 0xff,
  0x00, 0x00, 0x00, 0x09, 0x04, 0x00, 0x00, 0x00, 0x1c, 0x00, 0x00, 0x00,
  0x10, 0x00, 0x00, 0x00, 0x04, 0x00, 0x00, 0x00, 0x4e, 0xd2, 0xff, 0xff,
  0x00, 0x00, 0x80, 0x3f, 0x01, 0x00, 0x00, 0x00, 0x11, 0x00, 0x00, 0x00,
  0x01, 0x00, 0x00, 0x00, 0x10, 0x00, 0x00, 0x00, 0xf6, 0xfb, 0xff, 0xff,
  0x00, 0x00, 0x00, 0x19, 0x01, 0x00, 0x00, 0x00, 0xce, 0xd1, 0xff, 0xff,
  0x10, 0x00, 0x00, 0x00, 0x12, 0x00, 0x00, 0x00, 0x14, 0x00, 0x00, 0x00,
  0x20, 0x00, 0x00, 0x00, 0x02, 0x00, 0x00, 0x00, 0x01, 0x00, 0x00, 0x00,
  0x03, 0x00, 0x00, 0x00, 0x08, 0x00, 0x00, 0x00, 0x49, 0x64, 0x65, 0x6e,
  0x74, 0x69, 0x74, 0x79, 0x00, 0x00, 0x00, 0x00, 0x08, 0xd2, 0xff, 0xff,
  0x00, 0x00, 0x0e, 0x00, 0x18, 0x00, 0x08, 0x00, 0x0c, 0x00, 0x10, 0x00,
  0x07, 0x00, 0x14, 0x00, 0x0e, 0x00, 0x00, 0x00, 0x00, 0x00, 0x00, 0x08,
  0x03, 0x00, 0x00, 0x00, 0x18, 0x00, 0x00, 0x00, 0x0c, 0x00, 0x00, 0x00,
  0x04, 0x00, 0x00, 0x00, 0xdc, 0xd1, 0xff, 0xff, 0x01, 0x00, 0x00, 0x00,
  0x10, 0x00, 0x00, 0x00, 0x03, 0x00, 0x00, 0x00, 0x0f, 0x00, 0x00, 0x00,
  0x05, 0x00, 0x00, 0x00, 0x02, 0x00, 0x00, 0x00, 0x46, 0xd2, 0xff, 0xff,
  0x10, 0x00, 0x00, 0x00, 0x11, 0x00, 0x00, 0x00, 0x14, 0x00, 0x00, 0x00,
  0x30, 0x00, 0x00, 0x00, 0x02, 0x00, 0x00, 0x00, 0x01, 0x00, 0x00, 0x00,
  0x03, 0x00, 0x00, 0x00, 0x1a, 0x00, 0x00, 0x00, 0x73, 0x65, 0x71, 0x75,
  0x65, 0x6e, 0x74, 0x69, 0x61, 0x6c, 0x2f, 0x64, 0x65, 0x6e, 0x73, 0x65,
  0x5f, 0x31, 0x2f, 0x42, 0x69, 0x61, 0x73, 0x41, 0x64, 0x64, 0x00, 0x00,
  0x38, 0xd2, 0xff, 0xff, 0xd6, 0xfd, 0xff, 0xff, 0x00, 0x00, 0x00, 0x08,
  0x03, 0x00, 0x00, 0x00, 0x24, 0x00, 0x00, 0x00, 0x18, 0x00, 0x00, 0x00,
  0x0c, 0x00, 0x00, 0x00, 0x00, 0x00, 0x06, 0x00, 0x08, 0x00, 0x07, 0x00,
  0x06, 0x00, 0x00, 0x00, 0x00, 0x00, 0x00, 0x01, 0x01, 0x00, 0x00, 0x00,
  0x0f, 0x00, 0x00, 0x00, 0x03, 0x00, 0x00, 0x00, 0x0e, 0x00, 0x00, 0x00,
  0x04, 0x00, 0x00, 0x00, 0x01, 0x00, 0x00, 0x00, 0xfe, 0xfc, 0xff, 0xff,
  0x00, 0x00, 0x00, 0x09, 0x01, 0x00, 0x00, 0x00, 0xd6, 0xd2, 0xff, 0xff,
  0x10, 0x00, 0x00, 0x00, 0x10, 0x00, 0x00, 0x00, 0x14, 0x00, 0x00, 0x00,
  0x2c, 0x00, 0x00, 0x00, 0x02, 0x00, 0x00, 0x00, 0x01, 0x00, 0x00, 0x00,
  0x10, 0x00, 0x00, 0x00, 0x15, 0x00, 0x00, 0x00, 0x73, 0x65, 0x71, 0x75,
  0x65, 0x6e, 0x74, 0x69, 0x61, 0x6c, 0x2f, 0x64, 0x65, 0x6e, 0x73, 0x65,
  0x2f, 0x52, 0x65, 0x6c, 0x75, 0x00, 0x00, 0x00, 0x1c, 0xd3, 0xff, 0xff,
  0x00, 0x00, 0x0a, 0x00, 0x10, 0x00, 0x04, 0x00, 0x08, 0x00, 0x0c, 0x00,
  0x0a, 0x00, 0x00, 0x00, 0x02, 0x00, 0x00, 0x00, 0x10, 0x00, 0x00, 0x00,
  0x04, 0x00, 0x00, 0x00, 0x01, 0x00, 0x00, 0x00, 0x0e, 0x00, 0x00, 0x00,
  0x02, 0x00, 0x00, 0x00, 0x0d, 0x00, 0x00, 0x00, 0x03, 0x00, 0x00, 0x00,
  0x7a, 0xfd, 0xff, 0xff, 0x00, 0x00, 0x00, 0x16, 0x01, 0x00, 0x00, 0x00,
  0x52, 0xd3, 0xff, 0xff, 0x10, 0x00, 0x00, 0x00, 0x0f, 0x00, 0x00, 0x00,
  0x14, 0x00, 0x00, 0x00, 0x30, 0x00, 0x00, 0x00, 0x02, 0x00, 0x00, 0x00,
  0x01, 0x00, 0x00, 0x00, 0x70, 0x00, 0x00, 0x00, 0x1a, 0x00, 0x00, 0x00,
  0x73, 0x65, 0x71, 0x75, 0x65, 0x6e, 0x74, 0x69, 0x61, 0x6c, 0x2f, 0x66,
  0x6c, 0x61, 0x74, 0x74, 0x65, 0x6e, 0x2f, 0x52, 0x65, 0x73, 0x68, 0x61,
  0x70, 0x65, 0x00, 0x00, 0x44, 0xd3, 0xff, 0xff, 0xe2, 0xfe, 0xff, 0xff,
  0x00, 0x00, 0x00, 0x05, 0x01, 0x00, 0x00, 0x00, 0x38, 0x00, 0x00, 0x00,
  0x2c, 0x00, 0x00, 0x00, 0x14, 0x00, 0x00, 0x00, 0x00, 0x00, 0x0e, 0x00,
  0x14, 0x00, 0x00, 0x00, 0x10, 0x00, 0x0c, 0x00, 0x08, 0x00, 0x04, 0x00,
  0x0e, 0x00, 0x00, 0x00, 0x03, 0x00, 0x00, 0x00, 0x01, 0x00, 0x00, 0x00,
  0x03, 0x00, 0x00, 0x00, 0x01, 0x00, 0x00, 0x00, 0x01, 0x00, 0x00, 0x00,
  0x0d, 0x00, 0x00, 0x00, 0x01, 0x00, 0x00, 0x00, 0x0c, 0x00, 0x00, 0x00,
  0xe2, 0xd3, 0xff, 0xff, 0x10, 0x00, 0x00, 0x00, 0x0e, 0x00, 0x00, 0x00,
  0x1c, 0x00, 0x00, 0x00, 0x40, 0x00, 0x00, 0x00, 0x04, 0x00, 0x00, 0x00,
  0x01, 0x00, 0x00, 0x00, 0x07, 0x00, 0x00, 0x00, 0x01, 0x00, 0x00, 0x00,
  0x10, 0x00, 0x00, 0x00, 0x22, 0x00, 0x00, 0x00, 0x73, 0x65, 0x71, 0x75,
  0x65, 0x6e, 0x74, 0x69, 0x61, 0x6c, 0x2f, 0x6d, 0x61, 0x78, 0x5f, 0x70,
  0x6f, 0x6f, 0x6c, 0x69, 0x6e, 0x67, 0x32, 0x64, 0x5f, 0x31, 0x2f, 0x4d,
  0x61, 0x78, 0x50, 0x6f, 0x6f, 0x6c, 0x00, 0x00, 0xe4, 0xd3, 0xff, 0xff,
  0xc2, 0xfe, 0xff, 0xff, 0x00, 0x00, 0x00, 0x01, 0x24, 0x00, 0x00, 0x00,
  0x18, 0x00, 0x00, 0x00, 0x04, 0x00, 0x00, 0x00, 0xb4, 0xfe, 0xff, 0xff,
  0x01, 0x00, 0x00, 0x00, 0x01, 0x00, 0x00, 0x00, 0x00, 0x00, 0x00, 0x01,
  0x01, 0x00, 0x00, 0x00, 0x0c, 0x00, 0x00, 0x00, 0x03, 0x00, 0x00, 0x00,
  0x0b, 0x00, 0x00, 0x00, 0x07, 0x00, 0x00, 0x00, 0x09, 0x00, 0x00, 0x00,
  0x72, 0xd4, 0xff, 0xff, 0x10, 0x00, 0x00, 0x00, 0x0d, 0x00, 0x00, 0x00,
  0x1c, 0x00, 0x00, 0x00, 0x2c, 0x00, 0x00, 0x00, 0x04, 0x00, 0x00, 0x00,
  0x01, 0x00, 0x00, 0x00, 0x15, 0x00, 0x00, 0x00, 0x01, 0x00, 0x00, 0x00,
  0x10, 0x00, 0x00, 0x00, 0x0c, 0x00, 0x00, 0x00, 0x74, 0x66, 0x6c, 0x2e,
  0x63, 0x6f, 0x6e, 0x76, 0x5f, 0x32, 0x64, 0x31, 0x00, 0x00, 0x00, 0x00,
  0xb8, 0xd4, 0xff, 0xff, 0x00, 0x00, 0x0e, 0x00, 0x1a, 0x00, 0x08, 0x00,
  0x0c, 0x00, 0x10, 0x00, 0x07, 0x00, 0x14, 0x00, 0x0e, 0x00, 0x00, 0x00,
  0x00, 0x00, 0x00, 0x05, 0x01, 0x00, 0x00, 0x00, 0x3c, 0x00, 0x00, 0x00,
  0x30, 0x00, 0x00, 0x00, 0x14, 0x00, 0x00, 0x00, 0x00, 0x00, 0x0e, 0x00,
  0x18, 0x00, 0x17, 0x00, 0x10, 0x00, 0x0c, 0x00, 0x08, 0x00, 0x04, 0x00,
  0x0e, 0x00, 0x00, 0x00, 0x03, 0x00, 0x00, 0x00, 0x03, 0x00, 0x00, 0x00,
  0x03, 0x00, 0x00, 0x00, 0x03, 0x00, 0x00, 0x00, 0x00, 0x00, 0x00, 0x01,
  0x01, 0x00, 0x00, 0x00, 0x0b, 0x00, 0x00, 0x00, 0x01, 0x00, 0x00, 0x00,
  0x0a, 0x00, 0x00, 0x00, 0x46, 0xff, 0xff, 0xff, 0x00, 0x00, 0x00, 0x11,
  0x01, 0x00, 0x00, 0x00, 0x1e, 0xd5, 0xff, 0xff, 0x10, 0x00, 0x00, 0x00,
  0x0c, 0x00, 0x00, 0x00, 0x1c, 0x00, 0x00, 0x00, 0x40, 0x00, 0x00, 0x00,
  0x04, 0x00, 0x00, 0x00, 0x01, 0x00, 0x00, 0x00, 0x15, 0x00, 0x00, 0x00,
  0x01, 0x00, 0x00, 0x00, 0x08, 0x00, 0x00, 0x00, 0x20, 0x00, 0x00, 0x00,
  0x73, 0x65, 0x71, 0x75, 0x65, 0x6e, 0x74, 0x69, 0x61, 0x6c, 0x2f, 0x6d,
  0x61, 0x78, 0x5f, 0x70, 0x6f, 0x6f, 0x6c, 0x69, 0x6e, 0x67, 0x32, 0x64,
  0x2f, 0x4d, 0x61, 0x78, 0x50, 0x6f, 0x6f, 0x6c, 0x00, 0x00, 0x00, 0x00,
  0x78, 0xd5, 0xff, 0xff, 0x00, 0x00, 0x0e, 0x00, 0x14, 0x00, 0x00, 0x00,
  0x08, 0x00, 0x0c, 0x00, 0x07, 0x00, 0x10, 0x00, 0x0e, 0x00, 0x00, 0x00,
  0x00, 0x00, 0x00, 0x01, 0x30, 0x00, 0x00, 0x00, 0x24, 0x00, 0x00, 0x00,
  0x10, 0x00, 0x00, 0x00, 0x0c, 0x00, 0x10, 0x00, 0x00, 0x00, 0x04, 0x00,
  0x08, 0x00, 0x0f, 0x00, 0x0c, 0x00, 0x00, 0x00, 0x01, 0x00, 0x00, 0x00,
  0x01, 0x00, 0x00, 0x00, 0x00, 0x00, 0x00, 0x01, 0x01, 0x00, 0x00, 0x00,
  0x0a, 0x00, 0x00, 0x00, 0x03, 0x00, 0x00, 0x00, 0x00, 0x00, 0x00, 0x00,
  0x06, 0x00, 0x00, 0x00, 0x08, 0x00, 0x00, 0x00, 0x00, 0x00, 0x0a, 0x00,
  0x0c, 0x00, 0x07, 0x00, 0x00, 0x00, 0x08, 0x00, 0x0a, 0x00, 0x00, 0x00,
  0x00, 0x00, 0x00, 0x03, 0x01, 0x00, 0x00, 0x00, 0xe2, 0xd5, 0xff, 0xff,
  0x10, 0x00, 0x00, 0x00, 0x0b, 0x00, 0x00, 0x00, 0x1c, 0x00, 0x00, 0x00,
  0x28, 0x00, 0x00, 0x00, 0x04, 0x00, 0x00, 0x00, 0x01, 0x00, 0x00, 0x00,
  0x40, 0x00, 0x00, 0x00, 0x03, 0x00, 0x00, 0x00, 0x08, 0x00, 0x00, 0x00,
  0x0b, 0x00, 0x00, 0x00, 0x74, 0x66, 0x6c, 0x2e, 0x63, 0x6f, 0x6e, 0x76,
  0x5f, 0x32, 0x64, 0x00, 0xcc, 0xd5, 0xff, 0xff, 0xc2, 0xd6, 0xff, 0xff,
  0x04, 0x00, 0x00, 0x00, 0x40, 0x00, 0x00, 0x00, 0x1e, 0x6e, 0xdd, 0xbe,
  0x84, 0x2b, 0xc5, 0xbd, 0x6a, 0x76, 0x6a, 0xbe, 0x2e, 0xce, 0xd5, 0x3f,
  0xca, 0x6f, 0x7d, 0xbf, 0x63, 0x90, 0x71, 0xbc, 0x25, 0x38, 0x6c, 0x3f,
  0x91, 0x97, 0x91, 0xbe, 0x76, 0x2e, 0x8a, 0xbe, 0x6b, 0x6b, 0xae, 0xbe,
  0x00, 0x91, 0xac, 0xbe, 0xc2, 0x83, 0x53, 0xbe, 0x6e, 0xda, 0x99, 0xbe,
  0xbb, 0x14, 0x49, 0xbe, 0xfd, 0xf0, 0xd9, 0x3c, 0x47, 0x76, 0x83, 0xbe,
  0x6a, 0xd6, 0xff, 0xff, 0x10, 0x00, 0x00, 0x00, 0x0a, 0x00, 0x00, 0x00,
  0x10, 0x00, 0x00, 0x00, 0x20, 0x00, 0x00, 0x00, 0x01, 0x00, 0x00, 0x00,
  0x10, 0x00, 0x00, 0x00, 0x0d, 0x00, 0x00, 0x00, 0x73, 0x74, 0x64, 0x2e,
  0x63, 0x6f, 0x6e, 0x73, 0x74, 0x61, 0x6e, 0x74, 0x31, 0x00, 0x00, 0x00,
  0x4c, 0xd6, 0xff, 0xff, 0x42, 0xd7, 0xff, 0xff, 0x04, 0x00, 0x00, 0x00,
  0x20, 0x00, 0x00, 0x00, 0x22, 0xed, 0xf0, 0xbe, 0x3f, 0x4c, 0xa9, 0xbe,
  0xb5, 0x6f, 0x9a, 0xbf, 0x4e, 0x90, 0x02, 0xc0, 0x12, 0xb9, 0x2d, 0xbf,
  0x5e, 0xb6, 0x1b, 0xbf, 0xd7, 0x9e, 0x5d, 0xbf, 0x03, 0x64, 0x07, 0x3f,
  0xca, 0xd6, 0xff, 0xff, 0x10, 0x00, 0x00, 0x00, 0x09, 0x00, 0x00, 0x00,
  0x10, 0x00, 0x00, 0x00, 0x20, 0x00, 0x00, 0x00, 0x01, 0x00, 0x00, 0x00,
  0x08, 0x00, 0x00, 0x00, 0x0c, 0x00, 0x00, 0x00, 0x73, 0x74, 0x64, 0x2e,
  0x63, 0x6f, 0x6e, 0x73, 0x74, 0x61, 0x6e, 0x74, 0x00, 0x00, 0x00, 0x00,
  0xac, 0xd6, 0xff, 0xff, 0xa2, 0xd7, 0xff, 0xff, 0x04, 0x00, 0x00, 0x00,
  0x00, 0x08, 0x00, 0x00, 0x56, 0x16, 0x5e, 0xbe, 0x74, 0x7a, 0x75, 0xbe,
  0x3b, 0xfc, 0x29, 0xbe, 0xab, 0x0d, 0xd3, 0x39, 0x2b, 0x31, 0x54, 0xbe,
  0xb5, 0xa1, 0x27, 0xbf, 0xd7, 0xeb, 0x82, 0xbe, 0x2c, 0xb5, 0x7b, 0xbe,
  0xdb, 0xde, 0x32, 0x3d, 0xb7, 0x5c, 0x8a, 0xbd, 0x4f, 0x59, 0xe1, 0xbc,
  0x64, 0x15, 0x8b, 0x3e, 0x03, 0xb9, 0xce, 0x3e, 0x59, 0x2f, 0x6d, 0xbd,
  0xac, 0x4f, 0x48, 0xbe, 0x18, 0x1b, 0x97, 0x3e, 0xac, 0x0b, 0x71, 0xbd,
  0x02, 0xfb, 0xce, 0x3e, 0xe5, 0xd2, 0x92, 0xbc, 0xca, 0xb6, 0xac, 0x3d,
  0xaf, 0xd9, 0x67, 0xbd, 0xc3, 0x19, 0x00, 0xbd, 0xa5, 0xfd, 0xfd, 0xbd,
  0xf0, 0xa4, 0x1c, 0xbd, 0xe0, 0x28, 0x72, 0xbc, 0x6a, 0x43, 0x85, 0xba,
  0x9f, 0x68, 0xaa, 0xbc, 0xfe, 0x4b, 0x40, 0x3e, 0xd8, 0xb4, 0x07, 0xbe,
  0xd4, 0x24, 0x64, 0xbb, 0x20, 0xe4, 0xa7, 0xbd, 0xfc, 0xb9, 0x0d, 0x3e,
  0xb4, 0x3b, 0x78, 0x3e, 0x16, 0x24, 0xe9, 0x3e, 0x2f, 0x24, 0xe4, 0xbd,
  0xfb, 0x1d, 0xf1, 0xbc, 0x7a, 0x69, 0x13, 0xbd, 0x38, 0x27, 0x4d, 0x3e,
  0xd6, 0xfb, 0x08, 0xbd, 0x2a, 0x6e, 0x6d, 0xbe, 0x5c, 0x09, 0x07, 0x3d,
  0x8a, 0xcd, 0x9f, 0xbd, 0xe2, 0x74, 0x01, 0xbe, 0xfb, 0xb0, 0x3f, 0xbd,
  0x94, 0x3d, 0x92, 0xbd, 0x86, 0x55, 0xf6, 0x3b, 0x05, 0xa7, 0xc0, 0xbd,
  0x0b, 0x16, 0xaf, 0xbd, 0xb7, 0xb5, 0x2f, 0x3e, 0x6f, 0x8e, 0x9a, 0x3d,
  0x4f, 0xda, 0xc0, 0xbd, 0xd1, 0x50, 0x26, 0xbd, 0xe4, 0x6e, 0x59, 0x3e,
  0x11, 0x46, 0x85, 0xbb, 0xe0, 0xf0, 0xd9, 0xbd, 0x0b, 0xf2, 0xa3, 0xbb,
  0x4d, 0x5b, 0xec, 0xbd, 0x97, 0x10, 0x86, 0xbd, 0x77, 0x89, 0xeb, 0xbd,
  0xda, 0x82, 0x39, 0xbc, 0x0c, 0xc7, 0x29, 0x3e, 0x05, 0x93, 0xad, 0x3d,
  0xa0, 0xdd, 0xae, 0xbd, 0xfc, 0x6d, 0x14, 0xbe, 0x74, 0x00, 0x00, 0xbe,
  0x7d, 0x57, 0x4c, 0xbe, 0x8e, 0xd0, 0x0e, 0xbe, 0xc4, 0x4f, 0xff, 0xbc,
  0x5d, 0x79, 0xe8, 0x3d, 0x37, 0xd8, 0x90, 0xbd, 0x71, 0xfd, 0x2a, 0xbe,
  0x02, 0xd1, 0x99, 0x3d, 0x8b, 0xe2, 0x42, 0xbd, 0xe6, 0xd6, 0x6a, 0xbe,
  0xe7, 0x6a, 0x9c, 0xbe, 0x02, 0x7c, 0x7c, 0xbe, 0x4c, 0xab, 0x28, 0xbd,
  0x2c, 0xc2, 0x53, 0xbc, 0x3a, 0x54, 0xb5, 0x3c, 0xa2, 0x5e, 0xa2, 0xbe,
  0xb4, 0x82, 0xd0, 0x3d, 0x0c, 0xb6, 0xe6, 0xba, 0x5a, 0x86, 0x1a, 0xbe,
  0x50, 0x20, 0x36, 0xbe, 0xde, 0x37, 0x82, 0xbe, 0xec, 0xdc, 0x4a, 0xbd,
  0x02, 0x82, 0x74, 0xbe, 0x94, 0xc6, 0x45, 0xbe, 0x6d, 0x5d, 0x6d, 0xbd,
  0xdc, 0xd6, 0xeb, 0xbd, 0x36, 0x37, 0x49, 0xbe, 0x47, 0x02, 0xc6, 0xbd,
  0x72, 0x8f, 0xd2, 0x3d, 0xe1, 0x5f, 0x8d, 0xbb, 0xd0, 0x32, 0x61, 0xbe,
  0x25, 0xf3, 0x90, 0xbd, 0xa4, 0x96, 0x03, 0x3e, 0x17, 0x37, 0xab, 0xbc,
  0xc4, 0xaf, 0x57, 0xbe, 0x2b, 0xf1, 0x9f, 0xbe, 0xf5, 0x2d, 0xbd, 0xbe,
  0x16, 0x7b, 0x8a, 0xbd, 0xde, 0x09, 0x6a, 0xbe, 0x0c, 0xd9, 0xd8, 0x3e,
  0xa8, 0x79, 0xa8, 0xbe, 0x4c, 0xf1, 0x62, 0xbe, 0xbd, 0x7c, 0x9a, 0xbe,
  0xde, 0xc4, 0x91, 0xbe, 0x3d, 0xd9, 0xde, 0xbd, 0x27, 0xa8, 0x6f, 0xbe,
  0x38, 0x75, 0xaf, 0xbe, 0x8f, 0x15, 0xb6, 0x3e, 0x9c, 0x7f, 0xd0, 0xbd,
  0xf9, 0xa8, 0x96, 0xbe, 0xde, 0x22, 0x76, 0xbe, 0x4c, 0x9a, 0x4e, 0xbe,
  0xe0, 0x0e, 0x85, 0xbe, 0x2a, 0x6a, 0xbb, 0xbd, 0x87, 0xf7, 0xda, 0xbd,
  0x2d, 0xc8, 0x01, 0x3f, 0xb2, 0x7d, 0x18, 0xbe, 0x68, 0x28, 0x31, 0xbd,
  0xde, 0xa5, 0xf4, 0xbd, 0xf4, 0xcb, 0x1d, 0xbe, 0x15, 0xda, 0x76, 0xbe,
  0x3e, 0x14, 0x40, 0xbd, 0xca, 0xe3, 0x0a, 0xbe, 0x86, 0x23, 0xe7, 0x3e,
  0x7b, 0xde, 0x8f, 0xbd, 0x69, 0x5c, 0x17, 0x3e, 0xa2, 0x08, 0x9a, 0xbc,
  0x83, 0x41, 0x00, 0x3f, 0x8e, 0x22, 0x12, 0x3e, 0x5b, 0x80, 0xc0, 0xbe,
  0xb1, 0xa7, 0x04, 0xbe, 0xaa, 0x32, 0xae, 0x3e, 0x3f, 0x29, 0x56, 0xbe,
  0xe0, 0x6f, 0xa8, 0x3c, 0x7e, 0x81, 0xd2, 0xbc, 0x0d, 0xb1, 0x03, 0x3e,
  0xb4, 0xd9, 0x30, 0x3e, 0xc5, 0x01, 0xcc, 0xbe, 0xfe, 0xf4, 0x29, 0xbe,
  0xae, 0xff, 0x0c, 0xbd, 0x21, 0x4f, 0xe5, 0xbc, 0x74, 0x67, 0xda, 0xbd,
  0xf2, 0x66, 0x40, 0xbc, 0xe2, 0xd2, 0x89, 0x3e, 0xaa, 0xca, 0x76, 0x3d,
  0x67, 0x42, 0xac, 0xbe, 0xe9, 0xd4, 0x72, 0x3c, 0xd9, 0xf2, 0xfd, 0xbd,
  0x48, 0x1e, 0xd0, 0x3d, 0xe5, 0x6b, 0xa1, 0xbd, 0xc4, 0x46, 0x01, 0xbc,
  0xdc, 0xa4, 0x37, 0xbe, 0x36, 0xc8, 0x8d, 0xbe, 0xf0, 0x4b, 0xd1, 0xbe,
  0x6f, 0x67, 0x60, 0xbc, 0x0f, 0x75, 0xc0, 0xbd, 0x15, 0x29, 0x2d, 0xbf,
  0x4d, 0x94, 0xe2, 0xbe, 0xbc, 0xc5, 0xd9, 0xbe, 0x10, 0xf9, 0xa6, 0xbd,
  0x0e, 0x36, 0x0e, 0xbf, 0x82, 0x5a, 0xef, 0x3c, 0xef, 0x14, 0x20, 0xbe,
  0x3e, 0x51, 0x22, 0xbf, 0x3f, 0x6a, 0x15, 0xbf, 0xc0, 0x1c, 0x6b, 0x3e,
  0xa2, 0x32, 0x96, 0xbd, 0xf7, 0xb2, 0xab, 0x3b, 0x35, 0xbc, 0x18, 0x3d,
  0x5a, 0x72, 0x87, 0x3e, 0x43, 0x19, 0xcf, 0xbd, 0xce, 0x11, 0xd8, 0xbd,
  0x44, 0x8f, 0x98, 0xbe, 0x8c, 0x78, 0xc4, 0x3d, 0x1c, 0xdb, 0x70, 0xbd,
  0x17, 0x3c, 0x7b, 0x3c, 0x25, 0x4a, 0xea, 0xbd, 0x67, 0x3c, 0x4a, 0x3d,
  0xb4, 0x4f, 0x4b, 0xbc, 0xb1, 0xbf, 0xd3, 0xbd, 0x12, 0x2d, 0xff, 0xbe,
  0x81, 0xef, 0x55, 0x3d, 0x61, 0xe8, 0x86, 0xbd, 0x3c, 0x8e, 0x07, 0x3e,
  0xef, 0xf0, 0x88, 0xbe, 0x68, 0x88, 0xf3, 0x3d, 0x49, 0x98, 0xc3, 0x3b,
  0x9a, 0xda, 0x3a, 0x3d, 0x44, 0x47, 0x5b, 0xbf, 0x5b, 0x46, 0xa0, 0x3c,
  0x48, 0x1d, 0x93, 0xbe, 0xa2, 0xc5, 0x8b, 0x3d, 0x92, 0x1a, 0x85, 0xbc,
  0xa8, 0xbd, 0x5a, 0x3e, 0xbd, 0x42, 0x23, 0xbd, 0x23, 0xa8, 0x14, 0x3e,
  0x70, 0x5c, 0x1e, 0xbf, 0x0f, 0xe2, 0xac, 0xbd, 0x80, 0xb9, 0x83, 0xbd,
  0xad, 0xf2, 0xdb, 0x3d, 0x53, 0x18, 0xc7, 0x3d, 0xda, 0xf9, 0x3f, 0x3d,
  0x24, 0x5d, 0x8c, 0xbe, 0x8f, 0x0c, 0x4e, 0x3d, 0x9c, 0x32, 0x0d, 0xbe,
  0xb6, 0xbb, 0xb6, 0xbe, 0x37, 0x1f, 0xf8, 0xbd, 0xe7, 0x86, 0x09, 0x3d,
  0x8f, 0x7c, 0xa0, 0xbe, 0x62, 0xe3, 0xb5, 0xbe, 0x80, 0x01, 0x45, 0xbe,
  0x7e, 0xb5, 0xa0, 0x3e, 0x35, 0x36, 0x2a, 0xbe, 0xbe, 0xb2, 0xe0, 0xbe,
  0x66, 0x33, 0x2e, 0xbe, 0x47, 0x6f, 0xdd, 0xbe, 0x6b, 0xc5, 0x49, 0xbe,
  0xc1, 0x26, 0xa3, 0xbe, 0x92, 0x83, 0x05, 0xbe, 0x61, 0x12, 0x82, 0xbc,
  0xe6, 0xf4, 0x87, 0xb8, 0x3e, 0x78, 0xcd, 0xbd, 0x65, 0xfe, 0xbd, 0xbc,
  0xfb, 0x32, 0x00, 0xbe, 0xa6, 0xb7, 0x91, 0xbe, 0xca, 0xf3, 0xde, 0xbd,
  0x25, 0x91, 0xeb, 0xbc, 0xdf, 0x7b, 0xb4, 0xbd, 0x50, 0x19, 0x3e, 0xbd,
  0x19, 0xd7, 0x09, 0xbe, 0x54, 0x7a, 0x7d, 0xbc, 0x8f, 0xec, 0x7c, 0xbd,
  0x44, 0xd5, 0xcc, 0x3c, 0x2f, 0xee, 0xe8, 0xbd, 0x7c, 0x09, 0x1b, 0xbd,
  0x0b, 0xf6, 0x2f, 0xbe, 0x87, 0x92, 0xdd, 0xbd, 0x1e, 0x8a, 0x05, 0xbe,
  0x36, 0x8b, 0x81, 0xbc, 0xe3, 0xbd, 0xa4, 0x3d, 0xec, 0xf7, 0x2b, 0x3d,
  0x15, 0xa2, 0x0d, 0x3f, 0x56, 0x91, 0xf6, 0xbc, 0x48, 0x3d, 0xcf, 0x3e,
  0x6d, 0x34, 0xe9, 0xbd, 0xa3, 0xbe, 0xfb, 0xbd, 0xd8, 0x21, 0x05, 0xbd,
  0x7b, 0x73, 0xec, 0x3d, 0x76, 0xe5, 0xb6, 0xbc, 0x4e, 0x77, 0x69, 0xbb,
  0xfd, 0x0a, 0xa4, 0xbc, 0x3d, 0xaa, 0xb5, 0x3d, 0x74, 0x09, 0x99, 0xbe,
  0xf4, 0x67, 0x07, 0xbe, 0x47, 0xd7, 0x5f, 0xbe, 0x15, 0xcf, 0x04, 0x3e,
  0x8f, 0x6b, 0x72, 0xbe, 0x6a, 0xa0, 0x97, 0xbe, 0xe9, 0x8f, 0xb9, 0xbe,
  0xcb, 0x35, 0x12, 0xbe, 0x3f, 0x81, 0x3e, 0x3d, 0x1b, 0xff, 0x0c, 0x3f,
  0xd8, 0xfb, 0x13, 0xbe, 0x4b, 0x86, 0xae, 0x3c, 0x7d, 0xf8, 0x88, 0x3b,
  0x39, 0xb9, 0x61, 0x3e, 0x2a, 0x8e, 0x7e, 0xbe, 0x6b, 0x47, 0xf5, 0x3d,
  0x65, 0xb0, 0xbc, 0x3d, 0x24, 0x80, 0x11, 0xbd, 0x0e, 0xe4, 0xc2, 0xbd,
  0xc8, 0xc7, 0x16, 0x3e, 0xa7, 0x29, 0x86, 0x3d, 0x60, 0x14, 0x13, 0x3d,
  0xff, 0x36, 0x55, 0xbe, 0x7f, 0x71, 0xc3, 0xbd, 0x2a, 0x06, 0x4c, 0xbb,
  0x9c, 0x01, 0x56, 0xbd, 0x78, 0x82, 0xe1, 0xbd, 0x38, 0x82, 0x50, 0x3d,
  0x5b, 0x38, 0x4b, 0xbd, 0x19, 0x20, 0x50, 0x3d, 0x38, 0x11, 0x83, 0xbe,
  0xa2, 0x9d, 0xa7, 0x3d, 0x51, 0xbf, 0x2a, 0x3e, 0x2f, 0xf4, 0xef, 0x3c,
  0xf2, 0xc9, 0xe7, 0xbd, 0x29, 0x02, 0x07, 0xbe, 0xfc, 0x85, 0x98, 0xbd,
  0x0f, 0x0c, 0x98, 0xbd, 0x18, 0xa8, 0x99, 0xbe, 0x50, 0x24, 0x59, 0xbe,
  0xd8, 0xbf, 0xa5, 0x3e, 0x5d, 0x5f, 0x10, 0xbd, 0x6b, 0x9a, 0xa3, 0xbc,
  0x7a, 0xb7, 0x02, 0xbe, 0xf8, 0x98, 0x2a, 0xbd, 0xbc, 0x67, 0x7d, 0xbd,
  0x3e, 0xe0, 0x36, 0xbe, 0xfc, 0x46, 0x1b, 0xbd, 0xe9, 0xac, 0x98, 0x3e,
  0xf9, 0x46, 0x6c, 0x3d, 0x9c, 0x13, 0x29, 0xbe, 0xd6, 0xf4, 0x89, 0xba,
  0x4c, 0xe3, 0x42, 0xbe, 0xfb, 0x8e, 0x8b, 0xbd, 0x46, 0x8d, 0xd3, 0xbe,
  0xbe, 0xa2, 0x93, 0xbe, 0xd3, 0x67, 0x47, 0xbc, 0x93, 0x67, 0x45, 0xbe,
  0x38, 0xf6, 0xa4, 0x3c, 0x84, 0xf4, 0xb4, 0xbd, 0x30, 0x19, 0x79, 0xbe,
  0x51, 0x22, 0xeb, 0x3a, 0xd6, 0xb1, 0xe5, 0xbe, 0x6c, 0x04, 0x66, 0xbe,
  0xb6, 0x83, 0xc3, 0x3c, 0xae, 0x04, 0xdd, 0xbe, 0x22, 0x58, 0x9e, 0xbd,
  0x38, 0xb7, 0x53, 0x3e, 0xbc, 0x8c, 0x3f, 0x3e, 0xd1, 0xde, 0x1c, 0x3f,
  0xe6, 0xe1, 0xbb, 0xbd, 0x95, 0xb9, 0xa2, 0x3e, 0xa0, 0x8e, 0x83, 0xbd,
  0x20, 0xfe, 0xc7, 0xbe, 0x7c, 0x06, 0xa1, 0xbd, 0x4f, 0xdb, 0xf6, 0x3c,
  0x3d, 0xda, 0xba, 0x3d, 0x8a, 0x5d, 0xe8, 0x3d, 0x20, 0x40, 0x98, 0xbd,
  0xbc, 0xac, 0x8d, 0xbd, 0xb4, 0xa6, 0x80, 0xbd, 0x61, 0x9d, 0x7b, 0xbe,
  0xbc, 0x5a, 0x9b, 0xbd, 0x4a, 0xda, 0xd2, 0x3c, 0x9c, 0x6c, 0x2c, 0xbe,
  0x99, 0xb5, 0x97, 0xbd, 0xc9, 0xe3, 0x07, 0xbd, 0xce, 0x17, 0xd0, 0xbd,
  0x91, 0x13, 0x06, 0xbe, 0x9b, 0x35, 0x1a, 0xbe, 0xa1, 0x83, 0x86, 0xbd,
  0xba, 0x8e, 0x67, 0xbe, 0xf6, 0x43, 0xf4, 0xbd, 0xd6, 0x54, 0x0d, 0xbe,
  0xfd, 0xc4, 0xb8, 0xbb, 0x8f, 0xb7, 0x50, 0xbe, 0x90, 0xfd, 0x4d, 0xbd,
  0xa4, 0xe7, 0x20, 0xbf, 0xd4, 0x6b, 0xda, 0xbe, 0xc0, 0xb4, 0xeb, 0x3d,
  0x50, 0xd5, 0xae, 0x3e, 0xdf, 0x52, 0xe1, 0x3c, 0x47, 0x02, 0x64, 0xbe,
  0x8d, 0x4e, 0x18, 0x3f, 0xe2, 0x31, 0x88, 0x3e, 0x98, 0x09, 0xc3, 0xbe,
  0x8e, 0x41, 0x12, 0xbe, 0x38, 0x39, 0x33, 0x3e, 0xb8, 0xc5, 0x8f, 0x3d,
  0xfc, 0xb6, 0x57, 0x3c, 0x0a, 0xda, 0x47, 0xbe, 0xfd, 0x20, 0x5a, 0xbe,
  0xf2, 0xbc, 0x7e, 0x3c, 0x51, 0x2d, 0x3b, 0xbd, 0xf6, 0xd4, 0xb0, 0xbd,
  0xc8, 0x25, 0xfb, 0xbd, 0x8f, 0xeb, 0x38, 0xbe, 0x99, 0xe6, 0xa3, 0x3e,
  0x9f, 0x4e, 0x72, 0xbd, 0xf4, 0x17, 0xd3, 0xbe, 0x35, 0x54, 0x20, 0x3d,
  0xe7, 0xff, 0xf1, 0x3a, 0xb6, 0x0b, 0x05, 0xbd, 0x20, 0xdc, 0x5b, 0xbe,
  0x19, 0x8a, 0x9e, 0x3d, 0xe1, 0xe4, 0x54, 0xbd, 0xa8, 0x17, 0x00, 0x3c,
  0x84, 0x90, 0x8c, 0xbe, 0xa3, 0x75, 0xd0, 0x3d, 0x4e, 0x2f, 0x24, 0x3d,
  0xdd, 0x56, 0xb4, 0xbe, 0x53, 0x48, 0x68, 0xbe, 0xf1, 0xf9, 0x5a, 0x3e,
  0x5b, 0xa1, 0xb8, 0xbd, 0xc4, 0x9f, 0x3f, 0xbc, 0x1e, 0x3b, 0x1f, 0x3e,
  0x5a, 0x2b, 0x88, 0xbd, 0x6b, 0xbd, 0x8b, 0x3d, 0xa5, 0xc4, 0x86, 0xbe,
  0x64, 0x37, 0x6e, 0xbe, 0x9c, 0x0a, 0xd1, 0x3e, 0x4f, 0x9d, 0xde, 0xbd,
  0x04, 0x99, 0x4d, 0xbe, 0x41, 0xc6, 0x53, 0xbe, 0x04, 0xf9, 0x42, 0x3e,
  0x35, 0xd4, 0x84, 0xbd, 0x2b, 0x89, 0xa7, 0xbe, 0xbb, 0xd4, 0x1c, 0xbe,
  0x41, 0x58, 0x96, 0x3d, 0x82, 0x12, 0x88, 0x3d, 0xd1, 0x85, 0xa1, 0xbc,
  0xbf, 0x5c, 0x89, 0x3e, 0xe2, 0x6d, 0xc0, 0x3e, 0x01, 0x82, 0xd7, 0x3d,
  0x4c, 0x13, 0x8f, 0xbe, 0x94, 0x2f, 0x8c, 0xbd, 0x31, 0x6d, 0x99, 0x3d,
  0x82, 0x1f, 0x6b, 0xbd, 0x34, 0x23, 0xc0, 0x3c, 0x04, 0x81, 0x01, 0x3e,
  0x6d, 0x3a, 0x38, 0xbe, 0xd7, 0x74, 0xa5, 0xbe, 0xe9, 0x5a, 0x5c, 0x3c,
  0x50, 0x46, 0x06, 0x3e, 0x3e, 0x6d, 0x73, 0x3d, 0x72, 0x64, 0x71, 0x3d,
  0x0b, 0xdb, 0x27, 0xbe, 0xdb, 0x57, 0x52, 0x3d, 0xb9, 0xde, 0xce, 0x3d,
  0x4a, 0xd6, 0x38, 0xbe, 0x58, 0xcc, 0xaf, 0xbe, 0x8d, 0x59, 0x52, 0x3d,
  0xab, 0xf2, 0xb8, 0xbe, 0x68, 0xc4, 0x18, 0xbe, 0x87, 0x1f, 0x7c, 0xbd,
  0xfb, 0x69, 0xbb, 0xbd, 0x5b, 0x99, 0x5d, 0xbe, 0x68, 0x55, 0x1b, 0xbe,
  0xaf, 0x98, 0xbe, 0xbd, 0x28, 0x91, 0x19, 0xbe, 0x1a, 0xb5, 0xa8, 0xbe,
  0x47, 0x52, 0x02, 0xbd, 0x08, 0x95, 0x43, 0xbd, 0x9a, 0xf7, 0x3f, 0x3e,
  0x1e, 0xc2, 0xb5, 0x3d, 0x62, 0x85, 0x15, 0xbd, 0x93, 0x4c, 0x96, 0xbd,
  0xa1, 0x2b, 0xf7, 0xbc, 0xbd, 0xc4, 0x2a, 0x3e, 0x36, 0x83, 0x39, 0xbe,
  0xa6, 0x8a, 0x16, 0xbe, 0x78, 0x3a, 0xc2, 0xbe, 0xac, 0x34, 0xae, 0x3e,
  0xd0, 0xc5, 0x89, 0xbe, 0x59, 0xb0, 0xdd, 0x3b, 0xe1, 0xca, 0xb3, 0xbd,
  0x8b, 0x94, 0xee, 0xbd, 0xff, 0x0a, 0x02, 0xbe, 0xd0, 0x6e, 0xe4, 0x3c,
  0xfc, 0x26, 0x82, 0x3e, 0x73, 0xff, 0xb3, 0x3e, 0xed, 0xa4, 0xde, 0xbc,
  0x52, 0xa8, 0x83, 0x3c, 0x7f, 0xee, 0x19, 0xbf, 0x03, 0xaf, 0x84, 0x3e,
  0xeb, 0x3e, 0xc2, 0xbe, 0x66, 0x66, 0x0f, 0xbd, 0x2c, 0x1a, 0x95, 0xbe,
  0x19, 0xde, 0xbd, 0xbd, 0x11, 0xc5, 0x64, 0xbe, 0xc1, 0x75, 0x83, 0xbc,
  0xb7, 0x77, 0xf9, 0xbe, 0xcb, 0x23, 0xc0, 0xbd, 0x7e, 0x99, 0x20, 0xbf,
  0x0f, 0x0e, 0xa1, 0xbb, 0xa9, 0x3a, 0x66, 0x3b, 0xea, 0x8b, 0x60, 0xbe,
  0x6b, 0xe3, 0x77, 0xbe, 0x43, 0x6d, 0x26, 0xbd, 0x9c, 0xae, 0x15, 0xbf,
  0x30, 0x43, 0x57, 0xbd, 0xea, 0xd1, 0xde, 0xbe, 0x80, 0x41, 0x8b, 0xbd,
  0xfb, 0x06, 0xbf, 0x3d, 0xac, 0x0d, 0x01, 0xbf, 0x50, 0x19, 0x8d, 0xbe,
  0xbe, 0xe1, 0x06, 0xbf, 0xec, 0xf1, 0x8f, 0xbe, 0xd9, 0xda, 0x19, 0xbf,
  0x95, 0x07, 0xc2, 0xbe, 0x3b, 0x42, 0xe5, 0xbe, 0x46, 0x3b, 0x93, 0xbe,
  0x99, 0x5c, 0x21, 0xbb, 0x0a, 0x56, 0x1a, 0xbe, 0xeb, 0x37, 0xee, 0xbd,
  0x7c, 0x65, 0x0b, 0x3f, 0x85, 0x1f, 0xa9, 0x3e, 0x6b, 0x8b, 0x3c, 0x3d,
  0x07, 0x1b, 0x2b, 0xbe, 0xf4, 0xbc, 0x27, 0x3f, 0x1d, 0x35, 0x7f, 0xbd,
  0x39, 0x60, 0x58, 0x3e, 0xb8, 0x4b, 0x96, 0xbd, 0xc7, 0x48, 0x0d, 0x3e,
  0xb9, 0xac, 0xf5, 0xbd, 0xf1, 0x20, 0x40, 0xbd, 0xd9, 0xe5, 0x14, 0xbe,
  0x2e, 0x10, 0x70, 0xbe, 0x91, 0x57, 0x03, 0xbd, 0x3e, 0x34, 0x5c, 0x3d,
  0x9d, 0x79, 0x94, 0xbd, 0x1b, 0xb6, 0xc3, 0x3c, 0x4a, 0x1b, 0x07, 0x3e,
  0x93, 0x20, 0x99, 0x3d, 0x92, 0xf5, 0x91, 0x3c, 0xae, 0x6c, 0x07, 0xbe,
  0x0a, 0xdf, 0xff, 0xff, 0x10, 0x00, 0x00, 0x00, 0x08, 0x00, 0x00, 0x00,
  0x1c, 0x00, 0x00, 0x00, 0x38, 0x00, 0x00, 0x00, 0x04, 0x00, 0x00, 0x00,
  0x10, 0x00, 0x00, 0x00, 0x04, 0x00, 0x00, 0x00, 0x01, 0x00, 0x00, 0x00,
  0x08, 0x00, 0x00, 0x00, 0x1a, 0x00, 0x00, 0x00, 0x73, 0x65, 0x71, 0x75,
  0x65, 0x6e, 0x74, 0x69, 0x61, 0x6c, 0x2f, 0x63, 0x6f, 0x6e, 0x76, 0x32,
  0x64, 0x5f, 0x31, 0x2f, 0x43, 0x6f, 0x6e, 0x76, 0x32, 0x44, 0x00, 0x00,
  0x04, 0xdf, 0xff, 0xff, 0xfa, 0xdf, 0xff, 0xff, 0x04, 0x00, 0x00, 0x00,
  0x80, 0x01, 0x00, 0x00, 0x9a, 0x4d, 0x63, 0xbe, 0xca, 0xd5, 0x8b, 0xbd,
  0x2f, 0xec, 0xcf, 0xbe, 0x8d, 0x6e, 0xf6, 0x3c, 0x47, 0xb4, 0x1a, 0xbe,
  0x3d, 0x94, 0xdc, 0xbe, 0x4a, 0x58, 0x0a, 0xbe, 0x85, 0xe3, 0x2e, 0x3e,
  0xc4, 0x0b, 0x00, 0xbf, 0xaf, 0x0c, 0x39, 0x3b, 0x3e, 0x83, 0x7b, 0x3c,
  0x2c, 0x2f, 0x90, 0xbe, 0x45, 0x91, 0x56, 0xbe, 0xeb, 0x11, 0x55, 0xbc,
  0x44, 0xe3, 0x2a, 0xbf, 0xc8, 0xe3, 0x0c, 0x3f, 0x81, 0xdb, 0x1d, 0x3d,
  0x39, 0xc6, 0x12, 0xbe, 0xa5, 0xbf, 0x25, 0x3e, 0xcc, 0x28, 0x7d, 0x3d,
  0x5c, 0xb0, 0x06, 0xbe, 0x41, 0xe5, 0xf0, 0x3e, 0x3a, 0x24, 0xad, 0xbc,
  0x14, 0x07, 0x53, 0x3e, 0xff, 0xd3, 0x20, 0xbd, 0x93, 0x12, 0xfe, 0x3d,
  0x1d, 0xb5, 0xec, 0xbc, 0x00, 0x8e, 0x81, 0xbc, 0x57, 0x71, 0xca, 0x3c,
  0x36, 0x8e, 0x50, 0xbb, 0xdc, 0x50, 0x00, 0xbd, 0x5a, 0x10, 0xd9, 0x3d,
  0x00, 0x51, 0x0e, 0xbd, 0x71, 0x99, 0xab, 0xbd, 0xf5, 0x1d, 0xc0, 0x3c,
  0x58, 0x5c, 0x04, 0xbd, 0x11, 0x8f, 0xd5, 0x3d, 0x54, 0x38, 0x30, 0x3e,
  0x6b, 0xf3, 0x36, 0xbe, 0xd2, 0x23, 0x78, 0x3e, 0x01, 0x7f, 0x34, 0xbe,
  0x4b, 0x64, 0x26, 0xbd, 0x67, 0xcd, 0x29, 0x3d, 0xb9, 0xdd, 0x0c, 0xbe,
  0xb9, 0x28, 0x98, 0xbd, 0x7f, 0x38, 0x63, 0x3d, 0xb3, 0x90, 0x14, 0xbe,
  0x0f, 0xc0, 0x70, 0x3d, 0x1e, 0xac, 0x0d, 0x3f, 0xaf, 0x4e, 0xd6, 0xbc,
  0x26, 0x2f, 0xe9, 0xbd, 0x42, 0xb0, 0x9d, 0xbe, 0x37, 0xeb, 0x5a, 0xbd,
  0x1d, 0xf4, 0xfa, 0x3d, 0x81, 0xc0, 0x90, 0xbd, 0xcf, 0xd2, 0x8d, 0x3d,
  0xfe, 0x9d, 0xbe, 0xbe, 0x83, 0xc9, 0xec, 0xbd, 0x00, 0xf5, 0xba, 0xbc,
  0x95, 0x88, 0x4a, 0x3e, 0x92, 0xca, 0xd4, 0xbe, 0x30, 0x0c, 0xb0, 0xbd,
  0x8c, 0xaa, 0x3d, 0xbd, 0xc9, 0xcf, 0xb9, 0xbe, 0xb7, 0x64, 0xab, 0xbb,
  0xc1, 0x73, 0x14, 0xbd, 0xab, 0x26, 0x3d, 0x3d, 0x28, 0x16, 0x32, 0xbd,
  0xaf, 0xcf, 0x34, 0xbe, 0xa0, 0xdf, 0x90, 0x3d, 0xff, 0xc2, 0xd5, 0xbe,
  0xac, 0x50, 0xb2, 0x3d, 0x3e, 0x01, 0x0c, 0xbd, 0x9f, 0x98, 0x51, 0x3d,
  0x05, 0x2d, 0x69, 0x3e, 0x2e, 0xe2, 0x96, 0x3d, 0x82, 0xf6, 0x88, 0x3d,
  0x2c, 0x51, 0x22, 0xbe, 0xa8, 0x0a, 0xd7, 0xbd, 0xf2, 0xc1, 0x79, 0xbe,
  0x0e, 0xda, 0x0e, 0x3e, 0x61, 0x2e, 0x39, 0xbb, 0xc5, 0x28, 0x32, 0x3e,
  0xc2, 0xcc, 0xf2, 0x3c, 0xee, 0xd2, 0xcf, 0xbd, 0x7e, 0x6a, 0xe1, 0x3e,
  0x5b, 0x5a, 0x41, 0xbd, 0x39, 0xb4, 0x4d, 0x3d, 0xf5, 0xc9, 0x86, 0xbe,
  0xb2, 0x51, 0xd0, 0xbd, 0x94, 0x9d, 0x8a, 0x3e, 0xeb, 0x41, 0x5e, 0xbe,
  0xd4, 0x51, 0xeb, 0xbc, 0xad, 0xa4, 0x08, 0xbe, 0x89, 0x36, 0x62, 0xbc,
  0xc6, 0xe8, 0x65, 0x3d, 0xe2, 0xe0, 0xff, 0xff, 0x10, 0x00, 0x00, 0x00,
  0x07, 0x00, 0x00, 0x00, 0x1c, 0x00, 0x00, 0x00, 0x38, 0x00, 0x00, 0x00,
  0x04, 0x00, 0x00, 0x00, 0x08, 0x00, 0x00, 0x00, 0x04, 0x00, 0x00, 0x00,
  0x03, 0x00, 0x00, 0x00, 0x01, 0x00, 0x00, 0x00, 0x18, 0x00, 0x00, 0x00,
  0x73, 0x65, 0x71, 0x75, 0x65, 0x6e, 0x74, 0x69, 0x61, 0x6c, 0x2f, 0x63,
  0x6f, 0x6e, 0x76, 0x32, 0x64, 0x2f, 0x43, 0x6f, 0x6e, 0x76, 0x32, 0x44,
  0x00, 0x00, 0x00, 0x00, 0xdc, 0xe0, 0xff, 0xff, 0xd2, 0xe1, 0xff, 0xff,
  0x04, 0x00, 0x00, 0x00, 0xc0, 0x00, 0x00, 0x00, 0xd3, 0xa7, 0xc3, 0x3d,
  0xbf, 0xb0, 0x03, 0x3d, 0xb8, 0x72, 0xe8, 0xbd, 0xca, 0xb3, 0x76, 0x3e,
  0x11, 0x80, 0x3d, 0x3e, 0x94, 0x0b, 0xff, 0x3c, 0xbf, 0x0d, 0x23, 0xbe,
  0xd7, 0xb8, 0x4d, 0x3e, 0x3b, 0xf9, 0x20, 0xbd, 0xc3, 0x69, 0xe2, 0x3d,
  0x0f, 0x89, 0xd6, 0x3d, 0xe5, 0x59, 0x28, 0x3e, 0x33, 0x03, 0x04, 0x3e,
  0x6e, 0x31, 0xbb, 0xbe, 0x5b, 0x86, 0x6e, 0x3e, 0x6a, 0xb6, 0x26, 0x3e,
  0x89, 0x7f, 0xed, 0x3e, 0x5c, 0x76, 0x88, 0x3e, 0x85, 0xb5, 0x5f, 0xbe,
  0xb2, 0xc6, 0xeb, 0xbe, 0x03, 0x75, 0xb1, 0x3d, 0x33, 0x0e, 0xad, 0x3c,
  0x1d, 0xac, 0x4a, 0xbe, 0x28, 0x7e, 0x48, 0x3e, 0xcf, 0x6b, 0x89, 0x3e,
  0x4e, 0x32, 0x21, 0x3e, 0x4f, 0x6a, 0x22, 0xbe, 0x75, 0x60, 0xf8, 0xbe,
  0xae, 0xef, 0x4a, 0x3e, 0xe4, 0x8c, 0x96, 0x3d, 0x98, 0x21, 0x67, 0xbf,
  0xc7, 0x8a, 0x7d, 0x3e, 0x16, 0xee, 0xa5, 0x3e, 0x6a, 0x94, 0x8d, 0x3e,
  0xf5, 0x5d, 0xa1, 0xbe, 0xf0, 0xf3, 0x29, 0x3c, 0xea, 0x96, 0x09, 0x3d,
  0xd4, 0xfb, 0xd3, 0xbc, 0xd4, 0xb8, 0xfd, 0xbd, 0x6a, 0x72, 0xf7, 0x3c,
  0x05, 0x41, 0xeb, 0x3d, 0x9b, 0x44, 0xd8, 0xbc, 0xed, 0xe6, 0x3b, 0x3e,
  0xc7, 0x9f, 0xff, 0x3b, 0x2b, 0xa5, 0x2f, 0xbb, 0x8c, 0xe7, 0x23, 0x3b,
  0x5e, 0xa9, 0x8c, 0x3e, 0x8d, 0x79, 0x84, 0x3e, 0xfa, 0xe1, 0xff, 0xff,
  0x10, 0x00, 0x00, 0x00, 0x06, 0x00, 0x00, 0x00, 0x14, 0x00, 0x00, 0x00,
  0x30, 0x00, 0x00, 0x00, 0x02, 0x00, 0x00, 0x00, 0x03, 0x00, 0x00, 0x00,
  0x10, 0x00, 0x00, 0x00, 0x19, 0x00, 0x00, 0x00, 0x73, 0x65, 0x71, 0x75,
  0x65, 0x6e, 0x74, 0x69, 0x61, 0x6c, 0x2f, 0x64, 0x65, 0x6e, 0x73, 0x65,
  0x5f, 0x31, 0x2f, 0x4d, 0x61, 0x74, 0x4d, 0x75, 0x6c, 0x00, 0x00, 0x00,
  0xec, 0xe1, 0xff, 0xff, 0xe2, 0xe2, 0xff, 0xff, 0x04, 0x00, 0x00, 0x00,
  0x00, 0x1c, 0x00, 0x00, 0xd7, 0x1c, 0x17, 0xbe, 0x55, 0x47, 0x29, 0xbe,
  0x4c, 0x2e, 0x01, 0x3c, 0x3d, 0x34, 0x87, 0xbe, 0x67, 0xd0, 0xbb, 0xbe,
  0x15, 0x74, 0xaa, 0xbe, 0xda, 0xf8, 0x12, 0xbd, 0xa4, 0x39, 0xbe, 0xbe,
  0x47, 0xc8, 0xbb, 0xbe, 0x63, 0x59, 0x02, 0x3d, 0xb1, 0x2f, 0x06, 0xbe,
  0x80, 0x8f, 0x26, 0x3e, 0x9f, 0xf1, 0x80, 0x3c, 0x59, 0xa6, 0x2a, 0xbd,
  0xfc, 0x52, 0x9e, 0x3e, 0xff, 0x55, 0xbf, 0xbe, 0x3e, 0x61, 0x94, 0x3e,
  0x8c, 0x9a, 0xe3, 0x3c, 0x75, 0x28, 0x36, 0x3e, 0xf6, 0x64, 0x88, 0xbe,
  0xe1, 0x5f, 0x87, 0x3d, 0x4e, 0x7d, 0x22, 0x3d, 0xc5, 0x72, 0x99, 0xbe,
  0x48, 0x9c, 0x7b, 0xbe, 0xac, 0xb9, 0x1d, 0xbd, 0x65, 0xe0, 0xc7, 0x3d,
  0xd5, 0x2f, 0x23, 0xbe, 0x7d, 0x1c, 0x2d, 0xbd, 0x5e, 0x23, 0x22, 0x3e,
  0xff, 0x43, 0x83, 0x3e, 0x07, 0xe2, 0xc3, 0xbd, 0xf4, 0x75, 0xb3, 0x3d,
  0x14, 0x49, 0x6d, 0x3c, 0x2d, 0xa6, 0x8c, 0x3d, 0x5b, 0x93, 0xf1, 0xbd,
  0xb6, 0x5d, 0xac, 0xbd, 0x28, 0xc4, 0x62, 0x3e, 0x40, 0x3f, 0xfa, 0x3d,
  0xf8, 0x9f, 0x88, 0x3d, 0xb0, 0x51, 0x34, 0x3c, 0xd6, 0x2c, 0xc8, 0xbb,
  0x2a, 0x39, 0x98, 0xbe, 0x6a, 0xba, 0x3f, 0xbe, 0x68, 0x12, 0x33, 0xbd,
  0x8e, 0x67, 0x60, 0xbe, 0xd6, 0xd6, 0xf2, 0x3d, 0x95, 0x81, 0xb4, 0x3d,
  0x89, 0x73, 0x5a, 0x3d, 0x41, 0x88, 0x39, 0x3d, 0xe0, 0x62, 0x8a, 0x3d,
  0x13, 0x2e, 0x99, 0x3d, 0x5d, 0x71, 0xcb, 0xbd, 0xb6, 0xbf, 0xe2, 0x3d,
  0x82, 0x59, 0x47, 0xbd, 0x23, 0x72, 0xe1, 0xba, 0x0f, 0x74, 0x21, 0xbd,
  0x47, 0x7e, 0x25, 0x3d, 0x41, 0x06, 0x2b, 0xbd, 0xec, 0x13, 0x51, 0xbe,
  0x4e, 0x47, 0x07, 0xbe, 0xa6, 0x05, 0x01, 0xbe, 0xa4, 0x1a, 0x3f, 0xbd,
  0x26, 0x96, 0x03, 0xbc, 0xac, 0xb8, 0xbb, 0x3d, 0x2d, 0x9d, 0xc8, 0x3b,
  0xa6, 0xab, 0xa6, 0x3d, 0x25, 0xda, 0x9a, 0x3d, 0xbb, 0x02, 0xe4, 0xbc,
  0x58, 0x01, 0x09, 0x3e, 0xdd, 0xee, 0xe0, 0xbd, 0xcd, 0x14, 0xa1, 0x3c,
  0xeb, 0x9a, 0x0d, 0xbb, 0x1b, 0x2b, 0x24, 0xbd, 0x39, 0x46, 0x07, 0xbe,
  0x1c, 0xce, 0x19, 0xbe, 0x1b, 0x5a, 0x4a, 0xbe, 0x27, 0x22, 0x0c, 0xbe,
  0x0e, 0xcf, 0xd7, 0xbd, 0x4b, 0xf3, 0xf0, 0xbd, 0xbf, 0x96, 0xa9, 0xbd,
  0xc8, 0x02, 0x31, 0xbe, 0x91, 0xae, 0xa3, 0xbd, 0xdc, 0x88, 0x1f, 0xbe,
  0x32, 0x02, 0x94, 0xbe, 0x00, 0x16, 0x3d, 0xbd, 0x7c, 0x12, 0xfe, 0x3d,
  0x46, 0x3b, 0xad, 0xbd, 0x93, 0x65, 0xb1, 0x3c, 0x48, 0xc1, 0x32, 0x3c,
  0x64, 0x7d, 0xf2, 0x3d, 0x23, 0x6d, 0xa5, 0xbc, 0x62, 0xf8, 0x93, 0xbd,
  0x34, 0xfb, 0x7b, 0xbe, 0xb5, 0xd3, 0x82, 0xbd, 0x2a, 0xf0, 0xfa, 0xbc,
  0x35, 0x60, 0xbe, 0x3c, 0x2c, 0xfa, 0x0c, 0xbe, 0x15, 0xb5, 0x7f, 0xbe,
  0x88, 0x22, 0x7c, 0xbc, 0x6f, 0xd7, 0x07, 0xbd, 0x54, 0xe6, 0xb2, 0xbe,
  0xe1, 0x1d, 0xa8, 0xbd, 0xd1, 0x76, 0x60, 0xbd, 0x33, 0x21, 0xa5, 0xbe,
  0x2e, 0x52, 0x6c, 0xbe, 0x24, 0xfd, 0xa1, 0x3a, 0x06, 0x97, 0x52, 0xbd,
  0x13, 0x61, 0xeb, 0xbd, 0x2c, 0x2c, 0x50, 0x3e, 0x19, 0x2f, 0x0e, 0x3e,
  0x50, 0x49, 0x45, 0x3c, 0x70, 0xc1, 0xa4, 0x3d, 0x49, 0x2f, 0xb9, 0x3b,
  0x16, 0xc6, 0x4f, 0x3e, 0xf2, 0x26, 0x05, 0x3e, 0xe7, 0x5a, 0x1a, 0xbe,
  0x85, 0x5c, 0xac, 0x3e, 0x57, 0x58, 0x48, 0x3c, 0x35, 0xf8, 0x78, 0x3d,
  0x85, 0xc4, 0x4e, 0xbe, 0x46, 0xd1, 0xea, 0x3d, 0x75, 0xd8, 0xe4, 0x3d,
  0xba, 0x3b, 0xb4, 0xbd, 0x4d, 0xdd, 0xd9, 0xbd, 0xc3, 0x7f, 0x0b, 0x3e,
  0x2a, 0x80, 0xd4, 0xbc, 0x85, 0xf2, 0xb9, 0x3d, 0xd0, 0xc2, 0x93, 0xbc,
  0xc7, 0xfb, 0xf8, 0x3c, 0x18, 0xe0, 0xb4, 0x3c, 0xbb, 0x41, 0xd6, 0x3c,
  0xb1, 0x70, 0x8b, 0xbe, 0xb7, 0x14, 0x23, 0xbe, 0xd8, 0xe2, 0xa6, 0xbc,
  0xd6, 0xf1, 0xdf, 0xbb, 0x85, 0x52, 0x43, 0xbe, 0x45, 0x81, 0x7a, 0x3c,
  0x8b, 0xa9, 0x86, 0x3d, 0xc5, 0x8f, 0xb5, 0xbe, 0x09, 0x29, 0x46, 0xbe,
  0x3f, 0x19, 0xa7, 0x3e, 0xc3, 0xc5, 0x5a, 0x3e, 0x61, 0xa2, 0x01, 0xbe,
  0x8e, 0x34, 0x78, 0xbd, 0xa1, 0xd8, 0xa3, 0xbc, 0xa9, 0x82, 0x87, 0xba,
  0xed, 0x36, 0x0d, 0x3e, 0xe6, 0xfc, 0xb7, 0xbc, 0x9b, 0x8a, 0x36, 0xbd,
  0x6b, 0x91, 0x7f, 0x3e, 0x7b, 0x55, 0xcd, 0x3c, 0x4c, 0x24, 0x10, 0x3c,
  0x4d, 0x94, 0x11, 0x3d, 0x04, 0xc2, 0x33, 0x3e, 0xe3, 0x8e, 0x62, 0xbe,
  0x1a, 0xa4, 0xcb, 0xbd, 0xde, 0x9d, 0x60, 0x3e, 0xe9, 0x13, 0x30, 0x3e,
  0x2b, 0xb1, 0x01, 0xbe, 0xbe, 0x34, 0x09, 0x3d, 0xef, 0x06, 0x87, 0xbc,
  0xfe, 0x9c, 0x1b, 0x3d, 0xbe, 0xac, 0x03, 0xbe, 0x14, 0x5d, 0x7b, 0xbe,
  0x71, 0x8a, 0x9a, 0x3d, 0x54, 0x1e, 0x1f, 0x3d, 0x70, 0x13, 0x8b, 0x3d,
  0x68, 0xa7, 0x98, 0xbd, 0xca, 0x5b, 0x9a, 0xbb, 0x57, 0x28, 0x0f, 0xbb,
  0x76, 0x19, 0x0c, 0xbe, 0x51, 0x1a, 0x16, 0xbd, 0x8f, 0x4e, 0x79, 0x3e,
  0xd0, 0x8a, 0xcf, 0xbb, 0x60, 0x47, 0xa9, 0x3e, 0xcf, 0x00, 0x0e, 0xbe,
  0xbf, 0xa4, 0x39, 0xbd, 0x8c, 0x88, 0xc8, 0x3d, 0xab, 0x25, 0x7d, 0x3d,
  0x87, 0x9c, 0xa4, 0xbd, 0x0d, 0xfc, 0x94, 0xbd, 0x43, 0x8c, 0x55, 0x3e,
  0x05, 0x75, 0xa3, 0xbe, 0x2c, 0x86, 0xdb, 0xbd, 0x32, 0x74, 0xdc, 0xbd,
  0x52, 0xbe, 0x47, 0x3e, 0x24, 0x5f, 0xf5, 0xbd, 0x28, 0xfa, 0x21, 0x3d,
  0x88, 0xd4, 0x8b, 0x3d, 0x06, 0x1a, 0x1e, 0x3e, 0x49, 0x04, 0xa9, 0x3e,
  0x15, 0xc1, 0xd8, 0x3d, 0xf6, 0x5c, 0xe5, 0x3d, 0x3f, 0x90, 0x24, 0x3d,
  0x40, 0x98, 0x6c, 0xbd, 0x95, 0xe5, 0x48, 0xbe, 0x72, 0xda, 0x79, 0xbd,
  0x26, 0x08, 0xed, 0xbd, 0x86, 0x07, 0xa7, 0xbd, 0xf7, 0xb4, 0x37, 0xbe,
  0x66, 0xc2, 0x87, 0xbc, 0xc1, 0xc9, 0x10, 0xbd, 0x57, 0x39, 0x59, 0xbe,
  0xc5, 0xe4, 0x3b, 0xbe, 0xae, 0x09, 0x25, 0x3e, 0xb8, 0xa5, 0x99, 0x3d,
  0x99, 0x8f, 0x66, 0x3e, 0x65, 0xea, 0x3a, 0xbc, 0x39, 0xda, 0xc9, 0x3c,
  0xe6, 0x94, 0x08, 0x3d, 0x53, 0x9f, 0x0c, 0x3c, 0x59, 0x9d, 0x3b, 0xbc,
  0x1f, 0xc4, 0x2d, 0xbb, 0x3e, 0x7d, 0xf5, 0x3d, 0x10, 0xce, 0x23, 0x3d,
  0xd7, 0xdb, 0xe9, 0xbd, 0x22, 0xcd, 0xfa, 0x3d, 0xc7, 0xce, 0x14, 0x3e,
  0x3c, 0xfa, 0x07, 0xbe, 0xfe, 0x0e, 0x9d, 0xbd, 0xf7, 0x31, 0x1b, 0x3e,
  0xcf, 0x64, 0x35, 0xbc, 0xc7, 0x01, 0xe7, 0xbe, 0x2b, 0xa2, 0x68, 0x3e,
  0xae, 0x11, 0xa6, 0xbe, 0x97, 0xf6, 0x22, 0xbf, 0x39, 0xe5, 0xbd, 0x3d,
  0x55, 0xdc, 0x74, 0x3f, 0x7e, 0x0a, 0xb3, 0xbe, 0xa8, 0xe1, 0x28, 0xbd,
  0xd4, 0xf6, 0xcc, 0x3e, 0x0b, 0x19, 0xb2, 0x3b, 0x57, 0x5c, 0xdb, 0xbe,
  0x84, 0x6c, 0xe2, 0xbd, 0x17, 0x7d, 0x18, 0xbf, 0x05, 0x4c, 0x14, 0xbf,
  0x7c, 0xbd, 0x2e, 0xbe, 0x5e, 0x77, 0xbf, 0xbc, 0x33, 0x05, 0xe2, 0xbd,
  0x10, 0xd9, 0xbe, 0xbe, 0x27, 0x9a, 0x72, 0x3d, 0xd1, 0x95, 0x53, 0xbe,
  0x65, 0xc3, 0x38, 0xbe, 0x7a, 0xbd, 0x69, 0x3f, 0xf8, 0xd2, 0x12, 0x3c,
  0xa6, 0x88, 0x46, 0x3e, 0x9d, 0xfc, 0xdf, 0x3e, 0xce, 0xdf, 0x71, 0x3d,
  0x57, 0x39, 0x8b, 0x3d, 0x35, 0x73, 0xb2, 0xbd, 0xff, 0xce, 0x5c, 0xbe,
  0x45, 0xe8, 0xa5, 0xbd, 0xed, 0x84, 0x67, 0x3b, 0x8d, 0x9a, 0xf6, 0x3d,
  0x43, 0xef, 0x0b, 0xbd, 0xe1, 0xf0, 0x25, 0x3d, 0x9a, 0xe0, 0x73, 0xbd,
  0xb6, 0x2e, 0x02, 0x3d, 0x96, 0xe2, 0x66, 0xbb, 0x4f, 0x10, 0x3c, 0x3f,
  0xe3, 0xc6, 0xd3, 0x3d, 0xfb, 0x4c, 0xed, 0xbd, 0xc8, 0x50, 0x29, 0x3f,
  0x32, 0x99, 0x3c, 0x3e, 0xcd, 0xb2, 0x4d, 0x3d, 0x93, 0x25, 0xbc, 0xbb,
  0xc2, 0xa9, 0xa7, 0x3d, 0xf3, 0x0b, 0x8f, 0x3e, 0x77, 0x27, 0x8d, 0xbd,
  0xd6, 0xb8, 0x88, 0xbd, 0xe5, 0x75, 0x90, 0x39, 0xc9, 0x22, 0xdf, 0x3d,
  0xf6, 0xb9, 0xb6, 0xbc, 0xdd, 0x13, 0xdf, 0xbc, 0x4f, 0xb1, 0xb9, 0x3d,
  0x28, 0xb7, 0x28, 0x3f, 0xff, 0xfd, 0x02, 0xbd, 0x49, 0xf6, 0xa9, 0x3c,
  0x17, 0x3c, 0x84, 0x3f, 0x04, 0x44, 0x71, 0xbc, 0x4e, 0x16, 0x32, 0xbe,
  0x18, 0x8b, 0x04, 0xbd, 0xbd, 0xd5, 0x1f, 0x3d, 0x24, 0xab, 0x24, 0x3e,
  0x78, 0xb9, 0x9c, 0x3c, 0xc3, 0x05, 0x0c, 0xbe, 0xa5, 0xf6, 0xde, 0xbb,
  0x9d, 0x73, 0x82, 0x3d, 0xaf, 0x19, 0x08, 0x3d, 0xfd, 0x49, 0xaa, 0x3d,
  0xc2, 0xa0, 0x0a, 0x3e, 0x0f, 0x35, 0x8f, 0x3f, 0xe0, 0xf9, 0xf3, 0xbd,
  0xdf, 0x96, 0x41, 0x3c, 0x38, 0xd9, 0x72, 0x3f, 0x70, 0xc8, 0x83, 0xbc,
  0x54, 0xe7, 0xde, 0xbd, 0x99, 0x5e, 0x4d, 0x3d, 0x13, 0xba, 0xc3, 0x3d,
  0xee, 0x20, 0xe0, 0xbc, 0xd4, 0x0c, 0xdc, 0xbd, 0x96, 0x3b, 0x8b, 0x3d,
  0x18, 0xea, 0x89, 0xbd, 0xf0, 0x1b, 0xf8, 0x3c, 0x79, 0x6b, 0x68, 0xbd,
  0xb3, 0xcf, 0xb8, 0xbd, 0x03, 0x67, 0xe1, 0x3a, 0x9d, 0xf4, 0x87, 0x3f,
  0x25, 0x99, 0x59, 0xbe, 0xc7, 0x6f, 0x88, 0xbe, 0x4d, 0x02, 0x64, 0x3f,
  0xeb, 0x95, 0x77, 0x3d, 0xbb, 0x83, 0x56, 0xbe, 0x68, 0x20, 0x86, 0x3b,
  0x29, 0x52, 0x67, 0x3d, 0x31, 0x68, 0x8a, 0x3e, 0x38, 0x71, 0x4f, 0xbe,
  0x54, 0xfc, 0x39, 0x3c, 0x5c, 0x16, 0x1a, 0xbd, 0xd8, 0xc2, 0x53, 0x3e,
  0x4b, 0x26, 0x83, 0xbd, 0xff, 0x6c, 0xa0, 0x3c, 0xc6, 0x4c, 0x5d, 0xbd,
  0x81, 0x59, 0x7b, 0x3f, 0x18, 0x44, 0x65, 0xbe, 0x21, 0x54, 0xb2, 0x3d,
  0xad, 0x27, 0xde, 0xbc, 0xec, 0xb5, 0xfe, 0x3d, 0xc0, 0xb4, 0x63, 0x3d,
  0x84, 0xdb, 0x11, 0xbd, 0x7b, 0xd9, 0xca, 0x3d, 0xee, 0xfc, 0xfd, 0x3d,
  0x5a, 0x3c, 0x32, 0xbe, 0x91, 0xdb, 0x3b, 0xbd, 0x6a, 0xe8, 0xa1, 0xbd,
  0x76, 0x13, 0xff, 0xbd, 0xa7, 0x4b, 0xaa, 0x3b, 0x45, 0xe0, 0x1b, 0x3e,
  0xbf, 0x0b, 0xda, 0x3a, 0x3d, 0xcb, 0x63, 0x3f, 0x62, 0x84, 0x76, 0xba,
  0x8d, 0x21, 0xf6, 0x3c, 0x71, 0x15, 0x05, 0x3f, 0x43, 0x4a, 0x83, 0x3e,
  0x26, 0xc0, 0x6d, 0x3d, 0x5b, 0xd4, 0xcb, 0xbd, 0xbd, 0x75, 0x0e, 0x3e,
  0x4a, 0x7d, 0x8f, 0x3d, 0xea, 0x01, 0x6c, 0xbd, 0xf9, 0xfd, 0x02, 0xbd,
  0x45, 0x04, 0x09, 0xbd, 0x32, 0xc8, 0x55, 0x3b, 0x51, 0x6d, 0xd1, 0xbd,
  0xb2, 0x05, 0x9b, 0xbd, 0x55, 0xe5, 0xcc, 0x3d, 0xab, 0x34, 0x9c, 0x3f,
  0x86, 0x35, 0xa9, 0xbd, 0x7d, 0x05, 0x64, 0xbe, 0x87, 0x9f, 0xea, 0x3e,
  0x61, 0xb1, 0xef, 0xbc, 0xa0, 0xf3, 0x4f, 0xbd, 0x80, 0x53, 0xa0, 0xbd,
  0xc3, 0xb7, 0x81, 0x3e, 0xb3, 0x19, 0x58, 0x3e, 0xd7, 0x8c, 0x11, 0xbe,
  0x38, 0x32, 0x9d, 0x3d, 0xea, 0x5c, 0x3f, 0xbe, 0x0b, 0x52, 0x8d, 0x3d,
  0x10, 0xff, 0x76, 0x3d, 0x5c, 0x16, 0xc3, 0xbe, 0x12, 0xd6, 0xa5, 0xbb,
  0xd9, 0x5e, 0x38, 0x3f, 0x33, 0xce, 0x3c, 0xbe, 0x23, 0x06, 0x82, 0x3d,
  0x7e, 0xe0, 0x4e, 0x3f, 0x3d, 0xec, 0x33, 0xbe, 0xb6, 0x34, 0xaf, 0xbd,
  0x3f, 0xc2, 0xee, 0xbc, 0xdf, 0x58, 0x7e, 0x3d, 0xdd, 0x39, 0x17, 0xbe,
  0xad, 0x14, 0x75, 0xbd, 0xe9, 0xb3, 0x4c, 0xbe, 0x44, 0x05, 0x84, 0xbd,
  0x08, 0x97, 0x6a, 0xbc, 0xd1, 0x3e, 0xce, 0xbd, 0x05, 0xdb, 0xd2, 0xbe,
  0xfb, 0x26, 0x2a, 0x3e, 0xdd, 0xc2, 0x64, 0x3f, 0x3d, 0x56, 0xe7, 0xbd,
  0x7e, 0xb3, 0x01, 0xbe, 0x9b, 0x3d, 0x88, 0x3f, 0x41, 0xac, 0x5d, 0xbe,
  0xe6, 0xff, 0xc6, 0xbe, 0xb2, 0xf2, 0x11, 0xbe, 0xb7, 0xe7, 0xb4, 0xbe,
  0xdb, 0xb8, 0x10, 0xbe, 0x3f, 0x8c, 0x9e, 0xbd, 0x91, 0x0b, 0x02, 0x3d,
  0x02, 0xbb, 0x25, 0xbe, 0xb0, 0xf2, 0x31, 0x3d, 0x4b, 0xa5, 0xda, 0x3c,
  0xc7, 0x00, 0xb3, 0xbe, 0x50, 0x99, 0x0f, 0x3e, 0xd7, 0x90, 0xa2, 0x3f,
  0x79, 0x69, 0x59, 0xbe, 0x15, 0xc5, 0x2f, 0xbe, 0xc1, 0x5c, 0x6c, 0x3f,
  0xdd, 0x14, 0x7f, 0xbe, 0x30, 0xaa, 0x16, 0xbe, 0x7e, 0xb7, 0xa5, 0xbc,
  0x5c, 0xbf, 0xbb, 0xbe, 0x73, 0x70, 0xb3, 0xbe, 0xd6, 0x7d, 0x34, 0xbd,
  0x2e, 0xb0, 0x20, 0xbe, 0xb3, 0x45, 0x56, 0xbd, 0x1d, 0x93, 0x17, 0x3d,
  0xa4, 0x1c, 0x25, 0xbe, 0xa9, 0x86, 0xc4, 0xbe, 0x9a, 0xee, 0xf6, 0xbd,
  0x09, 0xf2, 0x94, 0x3f, 0xe8, 0x32, 0xc1, 0xbd, 0x49, 0xae, 0x4e, 0xbc,
  0x60, 0xcb, 0x61, 0x3f, 0x76, 0xc1, 0x3a, 0xbe, 0xc3, 0x41, 0x80, 0xbe,
  0x18, 0xb0, 0x5f, 0xbe, 0x85, 0x79, 0xc3, 0xbe, 0x2b, 0xcb, 0x4a, 0xbe,
  0x3e, 0xdc, 0xe6, 0xbd, 0x4d, 0xc8, 0xf2, 0xbd, 0xa6, 0x70, 0x04, 0xbe,
  0x76, 0xb9, 0xca, 0x3d, 0x11, 0x56, 0x0d, 0xbd, 0x6b, 0x9d, 0x9e, 0xbe,
  0x7c, 0xe5, 0xca, 0xbd, 0x58, 0xff, 0x72, 0x3f, 0xb3, 0x44, 0x49, 0xbc,
  0xe3, 0xa7, 0xc5, 0xbd, 0xc4, 0x12, 0x1e, 0x3e, 0xe9, 0xaf, 0x15, 0x3d,
  0x8f, 0x54, 0x03, 0xbe, 0xde, 0x95, 0x83, 0xbe, 0x71, 0x9c, 0xfc, 0xbd,
  0xb2, 0x35, 0xe8, 0xbb, 0xeb, 0xad, 0x01, 0xbe, 0x93, 0x16, 0x19, 0xbc,
  0xbf, 0x1b, 0xa3, 0xbd, 0xec, 0x0f, 0xd8, 0x3d, 0xb5, 0x2f, 0xaa, 0xbe,
  0xe0, 0xa7, 0xb4, 0xbe, 0x17, 0x5c, 0x28, 0xbd, 0x51, 0xf2, 0x5b, 0x3f,
  0xc1, 0x88, 0x0d, 0xbe, 0x7f, 0xa7, 0xce, 0xbe, 0x6d, 0x08, 0x70, 0x3f,
  0xf0, 0x1b, 0x9f, 0xbd, 0xfe, 0x63, 0x76, 0xbe, 0x2f, 0x43, 0xe8, 0xbc,
  0xb4, 0xbe, 0x8c, 0xbe, 0x66, 0xf3, 0xad, 0xbe, 0x27, 0x2c, 0xfb, 0xbd,
  0x2d, 0x46, 0x37, 0xb9, 0xce, 0x66, 0xad, 0xbd, 0xe8, 0x9b, 0x8d, 0xbe,
  0x78, 0xd4, 0x82, 0x3d, 0x68, 0x03, 0x0d, 0xbe, 0x17, 0x6d, 0x06, 0xbe,
  0xa0, 0xc9, 0x74, 0x3f, 0xd6, 0xfa, 0x05, 0xbe, 0x5f, 0x54, 0x92, 0xbe,
  0xc6, 0xc0, 0x67, 0x3f, 0xe5, 0xc4, 0x5d, 0x3d, 0x81, 0x0a, 0xf8, 0x3d,
  0x15, 0x19, 0x2e, 0xbc, 0xa8, 0x09, 0xe1, 0xbd, 0x3a, 0x37, 0x1d, 0xbe,
  0x74, 0x9e, 0x84, 0xbd, 0xfd, 0xa4, 0x13, 0xbd, 0xe5, 0xc7, 0x5d, 0xbd,
  0x62, 0x32, 0x39, 0x3e, 0x37, 0xcb, 0xa7, 0x3c, 0x39, 0xa7, 0x39, 0xbd,
  0xc4, 0x10, 0x30, 0xbe, 0xe0, 0xd1, 0x6c, 0x3f, 0x47, 0x07, 0x8e, 0xbd,
  0xab, 0x4f, 0xf2, 0xbd, 0xa0, 0x6c, 0x24, 0x3f, 0x2d, 0x0d, 0xef, 0xbd,
  0xc7, 0xda, 0x9b, 0x3d, 0xb2, 0x9a, 0xe3, 0xbd, 0x29, 0xe2, 0x1c, 0x3e,
  0xaf, 0x46, 0x3c, 0x3e, 0xe3, 0x21, 0x3b, 0xbe, 0xb4, 0x3b, 0xce, 0xbc,
  0xf4, 0x09, 0xb5, 0xbb, 0xdc, 0x57, 0x4e, 0x3d, 0xbd, 0x5f, 0x43, 0xbe,
  0x00, 0x93, 0xbf, 0xbd, 0xd3, 0xc7, 0xa8, 0x3d, 0xe7, 0x39, 0x41, 0x3f,
  0xd1, 0xd9, 0x1e, 0xbe, 0x0b, 0x19, 0xac, 0x3d, 0x09, 0xb8, 0x0e, 0x3f,
  0x64, 0xa0, 0x41, 0xbe, 0xec, 0xef, 0x1d, 0xbe, 0xe5, 0x5a, 0xc8, 0xbc,
  0xf3, 0xef, 0x56, 0x3e, 0x78, 0x81, 0x6c, 0xbd, 0xfb, 0x09, 0x31, 0xbe,
  0x35, 0x45, 0xbc, 0xbd, 0x84, 0x8d, 0xba, 0xbc, 0x82, 0xa7, 0xef, 0xbd,
  0x47, 0x08, 0xcf, 0xbd, 0x99, 0xa5, 0xa4, 0x3c, 0x52, 0xe2, 0x1e, 0x3e,
  0x93, 0xdf, 0x10, 0x3f, 0x0f, 0xbe, 0x87, 0xbd, 0x84, 0x60, 0x85, 0xbd,
  0xec, 0x72, 0x76, 0x3f, 0x09, 0xfb, 0x53, 0x3d, 0x21, 0x1c, 0xae, 0x3d,
  0x4f, 0x37, 0x50, 0xbe, 0x8f, 0x8d, 0xac, 0xbd, 0xbe, 0x12, 0x33, 0xbd,
  0xec, 0xd6, 0x16, 0xbe, 0xa8, 0xe8, 0xab, 0x3c, 0x2c, 0x1f, 0x85, 0x3c,
  0xd0, 0xb1, 0x93, 0x3d, 0xd3, 0x25, 0xae, 0x3d, 0x69, 0xa4, 0x0d, 0x3c,
  0x66, 0x0d, 0xac, 0x3d, 0x7a, 0xf1, 0x18, 0x3f, 0xf1, 0x44, 0x00, 0xbe,
  0xcb, 0xee, 0x8f, 0x3c, 0x7e, 0xfb, 0x2d, 0x3f, 0xfc, 0x16, 0x76, 0x3e,
  0x35, 0xf7, 0x6b, 0xbe, 0x43, 0x3e, 0x8c, 0xbd, 0xfe, 0x82, 0x19, 0x3e,
  0x97, 0x7f, 0x44, 0x3e, 0x78, 0x36, 0x52, 0x3d, 0xa1, 0xbc, 0x9f, 0x3c,
  0xd9, 0x5d, 0xd1, 0xbd, 0xff, 0x4f, 0xf5, 0xbd, 0xba, 0xeb, 0x21, 0xbe,
  0xea, 0xbd, 0x3b, 0xbd, 0xc0, 0x09, 0x76, 0xbd, 0x83, 0xb3, 0x63, 0x3f,
  0x9e, 0x8d, 0x07, 0xbd, 0x01, 0x4b, 0x29, 0xbd, 0xc8, 0xcf, 0xe5, 0xbd,
  0xbe, 0x6e, 0xa0, 0xbd, 0xc9, 0x13, 0x29, 0xbe, 0x36, 0x90, 0x0e, 0xbd,
  0x6d, 0x01, 0xf1, 0x3c, 0x45, 0xc8, 0x37, 0x3e, 0x7b, 0x20, 0xe5, 0xba,
  0x28, 0x4a, 0x97, 0xbd, 0x3b, 0x93, 0x7f, 0xbd, 0x8d, 0xb7, 0x11, 0x3d,
  0xba, 0x97, 0xa3, 0xbe, 0xb8, 0xf4, 0x74, 0xbd, 0xc4, 0x58, 0x10, 0xbe,
  0x60, 0x67, 0xf2, 0x3e, 0x6f, 0xd2, 0xad, 0xbe, 0x90, 0xb7, 0x71, 0xbe,
  0xc1, 0xda, 0x32, 0x3f, 0x64, 0x95, 0x7d, 0x3e, 0x55, 0xaf, 0xa3, 0xbe,
  0x2f, 0xb4, 0xf7, 0xbd, 0x4f, 0x5c, 0xb8, 0xbd, 0xa9, 0xba, 0xbf, 0xbd,
  0xe0, 0x4c, 0x27, 0xbe, 0xfc, 0x55, 0x80, 0xbd, 0xa3, 0x37, 0x71, 0x3c,
  0x0e, 0x80, 0x6d, 0xbe, 0x03, 0x47, 0x28, 0xbe, 0x66, 0x2a, 0xe8, 0x3d,
  0xfe, 0x14, 0x05, 0x3e, 0x13, 0x55, 0xb9, 0x3e, 0x4e, 0xb2, 0x1d, 0xbd,
  0xeb, 0xb4, 0x1c, 0x3d, 0xcc, 0x2d, 0x4b, 0x3e, 0xb8, 0xd8, 0x2e, 0x3e,
  0xd0, 0x31, 0xa0, 0x3c, 0x8d, 0xe4, 0x4f, 0xbd, 0x10, 0x5a, 0xae, 0x3e,
  0x36, 0xbe, 0xa4, 0x3e, 0xb9, 0x3c, 0xb1, 0xbd, 0xd4, 0xa8, 0x35, 0x3d,
  0x84, 0xf3, 0xe1, 0xbc, 0x9f, 0xd4, 0x84, 0x3d, 0x9b, 0xd9, 0x8d, 0xbd,
  0x30, 0xa5, 0x97, 0x3b, 0xbd, 0x3d, 0x6c, 0xbb, 0xc6, 0x68, 0x00, 0x3f,
  0xe0, 0xd2, 0x4b, 0xbd, 0xc6, 0x05, 0x30, 0xbe, 0xd3, 0xad, 0xc5, 0x3e,
  0x7c, 0x37, 0x8c, 0x3d, 0x8e, 0x16, 0x9b, 0x3d, 0x5b, 0x8a, 0xbb, 0x3d,
  0xdb, 0x86, 0x09, 0x3e, 0x14, 0x6a, 0x95, 0x3e, 0x5e, 0x0b, 0xbc, 0xbd,
  0xb2, 0x84, 0xc1, 0x3d, 0x2b, 0x42, 0x9d, 0xbd, 0x0e, 0x04, 0x37, 0x3d,
  0xde, 0x25, 0x47, 0xbe, 0xba, 0x03, 0x58, 0xbd, 0x1a, 0x83, 0x4b, 0x3e,
  0x5a, 0x15, 0x10, 0x3f, 0x64, 0xbd, 0x86, 0xbe, 0xb3, 0xbb, 0xf7, 0xbd,
  0xe7, 0x3c, 0xf2, 0x3e, 0xd6, 0xd2, 0xa5, 0x3d, 0xbc, 0xd0, 0x10, 0x3c,
  0x26, 0x0b, 0x70, 0xbd, 0x2a, 0x44, 0x09, 0x3e, 0xb5, 0xa3, 0x55, 0x3e,
  0x6d, 0xd2, 0x13, 0xbe, 0x98, 0x20, 0x87, 0xbd, 0x71, 0x7c, 0x93, 0xbd,
  0xec, 0x36, 0x7a, 0x3c, 0x4d, 0xb4, 0xd1, 0x3c, 0x82, 0x03, 0x59, 0xbe,
  0xef, 0xf5, 0x50, 0x3c, 0xb6, 0x90, 0xce, 0x3e, 0xe1, 0x99, 0xd8, 0xbe,
  0xde, 0xab, 0xb3, 0x3a, 0x89, 0x9f, 0x23, 0x3f, 0x47, 0xfb, 0xaa, 0xbd,
  0xe1, 0x97, 0xeb, 0xbd, 0xc4, 0xc4, 0x87, 0x3c, 0x1c, 0xf7, 0x80, 0x3d,
  0x69, 0x8b, 0xdf, 0xbd, 0x41, 0xc5, 0x82, 0xbe, 0x92, 0x7a, 0xd8, 0x3c,
  0x1b, 0x0f, 0x5a, 0xbd, 0xfc, 0xdd, 0x08, 0xbe, 0x5c, 0x81, 0xe7, 0x3c,
  0x88, 0xe0, 0x78, 0xbe, 0x8a, 0x94, 0x60, 0x3d, 0x82, 0xb3, 0x4a, 0x3f,
  0x0e, 0xb8, 0x9d, 0xbd, 0x9c, 0x5c, 0x0e, 0x3d, 0xe2, 0x7a, 0x0a, 0x3f,
  0xa4, 0xb3, 0xd4, 0xbd, 0x8d, 0x1e, 0x50, 0xbd, 0xc2, 0x37, 0x87, 0xbe,
  0x30, 0x74, 0x1f, 0xbe, 0xb5, 0x8f, 0xa6, 0xbd, 0x3f, 0x36, 0x05, 0xbe,
  0x67, 0x3b, 0xb8, 0x3c, 0x36, 0xdc, 0x00, 0xbe, 0xd1, 0x78, 0x25, 0x3d,
  0xd4, 0xb8, 0x5b, 0x3e, 0x66, 0x27, 0x9b, 0x3d, 0x86, 0xca, 0xda, 0x3d,
  0x12, 0x98, 0x2b, 0x3f, 0xaf, 0x76, 0xe2, 0x3d, 0x87, 0xc0, 0x4e, 0xbe,
  0x1c, 0x51, 0xe6, 0xbe, 0xec, 0x04, 0xf5, 0xbd, 0xa3, 0x66, 0x86, 0x3d,
  0xff, 0x92, 0xae, 0xbe, 0x09, 0x0e, 0x6f, 0xbd, 0x7e, 0x0e, 0x50, 0xbe,
  0xd8, 0x23, 0xe2, 0x3c, 0xbb, 0x35, 0xb3, 0x3c, 0x52, 0x94, 0x89, 0xbc,
  0x82, 0x08, 0x97, 0xbd, 0xbc, 0x09, 0xb0, 0x3d, 0x6a, 0xbc, 0x0f, 0x3f,
  0xb0, 0xc5, 0x53, 0x3d, 0x88, 0xed, 0xd6, 0xbd, 0xb6, 0x12, 0x22, 0x3f,
  0xaa, 0x82, 0xc9, 0x3e, 0x47, 0xff, 0x86, 0xbe, 0x2a, 0x30, 0xaf, 0xbe,
  0x80, 0x0e, 0x4e, 0x3e, 0x77, 0x17, 0x11, 0x3f, 0xdd, 0x32, 0x32, 0xbe,
  0x38, 0xcf, 0x01, 0xbe, 0x1b, 0x31, 0xb9, 0x3d, 0x39, 0xb4, 0x24, 0x3e,
  0xff, 0x40, 0xf9, 0xbe, 0x80, 0x4f, 0xdd, 0xbd, 0xc3, 0x9c, 0x64, 0x3d,
  0x4a, 0xd2, 0xf2, 0xbd, 0x96, 0x8b, 0x58, 0x3e, 0xea, 0x0c, 0x23, 0xbe,
  0xa6, 0x43, 0x6d, 0x3d, 0x4d, 0x07, 0xa3, 0xbd, 0x65, 0x0c, 0x61, 0xbe,
  0xec, 0x56, 0x1a, 0xbe, 0xcc, 0xba, 0x89, 0xbd, 0x51, 0x4b, 0x0d, 0x3e,
  0x40, 0x7d, 0xda, 0xbe, 0xd4, 0xd7, 0xf1, 0xbd, 0xf0, 0x93, 0x00, 0x3e,
  0x5c, 0x10, 0x44, 0xbd, 0x10, 0x66, 0x9e, 0x3e, 0x0e, 0xde, 0xda, 0xbe,
  0x1c, 0xb8, 0x17, 0x3e, 0xc2, 0xe6, 0xf2, 0xbd, 0x12, 0x62, 0x37, 0xbe,
  0xa4, 0x4b, 0xc9, 0x3d, 0xee, 0xa6, 0x59, 0x3d, 0xc8, 0xff, 0x42, 0x3e,
  0xbc, 0xf6, 0x5e, 0xbe, 0x73, 0x38, 0x0a, 0xbe, 0x21, 0x17, 0x27, 0x3d,
  0xbb, 0xc5, 0x99, 0x3e, 0x10, 0xaa, 0x72, 0xbe, 0x2f, 0xc6, 0xe3, 0x3d,
  0x6f, 0x2a, 0x83, 0x3e, 0x4a, 0x7a, 0x25, 0x3e, 0x9f, 0xcc, 0x12, 0xbe,
  0x47, 0xd5, 0x2a, 0xbe, 0xd1, 0x03, 0x09, 0x3e, 0xc2, 0x58, 0x38, 0xbd,
  0xe6, 0x2a, 0x12, 0xbe, 0x17, 0xa0, 0x12, 0xbe, 0x99, 0x2e, 0xea, 0x3d,
  0xda, 0x59, 0xf5, 0x3c, 0x60, 0xe3, 0xca, 0xbc, 0xa1, 0xa3, 0x01, 0xbe,
  0xa1, 0xb1, 0xe8, 0x3b, 0x55, 0x03, 0x8a, 0x3d, 0x04, 0x77, 0x3a, 0xbe,
  0x29, 0x11, 0x16, 0x3e, 0x6a, 0x04, 0x80, 0x3e, 0x67, 0x41, 0x33, 0x3d,
  0x86, 0x5f, 0x74, 0xbe, 0xb0, 0x62, 0x29, 0x3e, 0xbd, 0x66, 0xbe, 0x3c,
  0x92, 0x98, 0xd2, 0xbd, 0xfb, 0x56, 0x61, 0x3e, 0x96, 0x59, 0xe9, 0x3c,
  0x9c, 0x09, 0x81, 0xbd, 0xc5, 0xb8, 0x23, 0x3e, 0xe7, 0x10, 0xb4, 0x3d,
  0xed, 0x7c, 0x94, 0xbc, 0xbc, 0x5d, 0x0c, 0xbc, 0x4e, 0xcc, 0x32, 0x3e,
  0x53, 0x40, 0xa9, 0xbd, 0xe7, 0x51, 0xbe, 0x3d, 0x61, 0x4c, 0x41, 0x3e,
  0x16, 0xf4, 0x28, 0xbd, 0x78, 0x0c, 0x8f, 0xbe, 0x6b, 0xcb, 0x1b, 0x3e,
  0x87, 0x8b, 0x6e, 0x3d, 0x04, 0xed, 0x4f, 0xbd, 0x32, 0x85, 0xef, 0xbd,
  0x4c, 0x4c, 0xa6, 0xbc, 0xd0, 0xee, 0xb7, 0xbd, 0xb0, 0x56, 0xc8, 0x3c,
  0x3b, 0xb7, 0x12, 0xbe, 0x3d, 0x9c, 0x4b, 0xbe, 0x90, 0xcd, 0xb1, 0xbc,
  0xf2, 0xde, 0x66, 0x3e, 0x2f, 0xa9, 0x8c, 0xbe, 0xf1, 0x3b, 0xc0, 0xbd,
  0x74, 0xaf, 0x8d, 0x3e, 0xa6, 0x33, 0xe3, 0xbb, 0x98, 0x40, 0x51, 0x3e,
  0xaf, 0x05, 0x26, 0x3d, 0xb0, 0xca, 0xba, 0xbc, 0x4f, 0x1f, 0x1a, 0x3b,
  0x86, 0xe2, 0x23, 0x3d, 0x14, 0xed, 0x12, 0xbe, 0xa4, 0xae, 0xbd, 0xbd,
  0x43, 0x96, 0xe9, 0x3d, 0xf2, 0xcd, 0x16, 0x3c, 0x07, 0x17, 0x07, 0xbd,
  0x8f, 0x00, 0x7a, 0xbc, 0x7f, 0x10, 0x77, 0x3e, 0x77, 0x23, 0x60, 0x3c,
  0x2e, 0x63, 0x32, 0xbd, 0x10, 0x12, 0xa0, 0x3e, 0x1d, 0x3e, 0x68, 0x3d,
  0x14, 0xd2, 0xe7, 0xbe, 0xe6, 0x6f, 0x5d, 0x3d, 0xfd, 0x37, 0xe0, 0xbe,
  0xda, 0x8b, 0xc6, 0xbe, 0xd7, 0x5a, 0x23, 0xbe, 0x80, 0x4d, 0x10, 0xbc,
  0xeb, 0xd7, 0xf9, 0xbe, 0xc1, 0x53, 0x1a, 0xbf, 0x37, 0x23, 0xa8, 0x3d,
  0xa8, 0xc1, 0x5e, 0xbd, 0x87, 0xb1, 0x1a, 0xbf, 0xff, 0xd1, 0x93, 0xbe,
  0x50, 0xd5, 0xb7, 0xbe, 0x50, 0x0e, 0x02, 0xbf, 0x90, 0xe7, 0x30, 0xbe,
  0xe3, 0x34, 0x9b, 0x3b, 0x4d, 0x4f, 0x66, 0xbc, 0x9f, 0xae, 0xb8, 0xbe,
  0x72, 0xb6, 0x74, 0x3d, 0xb0, 0xf7, 0x8b, 0xbe, 0x12, 0xb2, 0x48, 0x3e,
  0xb1, 0xf6, 0x34, 0xbe, 0x91, 0x81, 0x35, 0xbe, 0x1f, 0x5d, 0xb5, 0xbd,
  0x22, 0x44, 0xb5, 0x3d, 0xe6, 0x40, 0xd6, 0xbc, 0x1a, 0xfe, 0x91, 0x3b,
  0x89, 0x39, 0xa4, 0xbd, 0x41, 0x27, 0x34, 0x3c, 0x44, 0x95, 0x62, 0x3c,
  0x85, 0x29, 0x35, 0xbc, 0x68, 0x5f, 0x64, 0x3b, 0xec, 0x5f, 0x28, 0xbd,
  0x22, 0x7a, 0xc5, 0x3d, 0x56, 0xfc, 0xad, 0x3d, 0x88, 0xa0, 0x9e, 0xbd,
  0x9d, 0x06, 0x3a, 0xbe, 0xa6, 0xa8, 0x4f, 0x3c, 0x42, 0xb6, 0xe5, 0xbc,
  0x16, 0x94, 0x89, 0x3d, 0x71, 0xdf, 0xdd, 0xbd, 0xd5, 0xb3, 0xaa, 0xb8,
  0x5f, 0x39, 0xdb, 0xbc, 0xee, 0x26, 0x59, 0xbd, 0x54, 0xb6, 0xa2, 0x3d,
  0x1a, 0xff, 0x18, 0xbd, 0x68, 0xa5, 0x77, 0xbc, 0xa3, 0xa0, 0x33, 0xbd,
  0x5f, 0xcd, 0x6a, 0x3d, 0x2a, 0x9c, 0xb3, 0x3d, 0x78, 0x80, 0x37, 0x3e,
  0x9f, 0xb3, 0x94, 0x3d, 0x71, 0xcf, 0x0f, 0xbe, 0x75, 0x08, 0xdd, 0xbb,
  0xbb, 0x7d, 0x59, 0x3e, 0x60, 0x25, 0x00, 0x3e, 0xe7, 0x57, 0xdd, 0xbd,
  0x48, 0x3e, 0x24, 0xbc, 0x31, 0xef, 0x2a, 0x3c, 0xe7, 0x43, 0x4f, 0xbd,
  0xc1, 0x5b, 0x3d, 0xbd, 0x48, 0x74, 0xb0, 0xbd, 0x4f, 0xd7, 0x97, 0xbe,
  0xab, 0x19, 0xa0, 0x3d, 0x9d, 0xd5, 0x5e, 0xbd, 0xba, 0x6c, 0x50, 0xbc,
  0xcf, 0xc1, 0xbf, 0x3b, 0x67, 0xfc, 0x75, 0x3d, 0xd6, 0x73, 0x15, 0x3e,
  0xd6, 0x4d, 0x4a, 0xbc, 0xe0, 0x4a, 0xfb, 0x3d, 0x67, 0x32, 0x8b, 0x3d,
  0x37, 0x9d, 0xc3, 0x3c, 0xc0, 0x18, 0x28, 0x3e, 0xde, 0x57, 0xf0, 0xbd,
  0x53, 0xb8, 0x17, 0x3c, 0x43, 0x26, 0x81, 0x3e, 0x2d, 0xf7, 0x28, 0x3d,
  0x1b, 0xe6, 0xe3, 0xbd, 0xd8, 0x62, 0x8e, 0xbd, 0x5b, 0x0d, 0x80, 0xbd,
  0xf2, 0x12, 0xe9, 0x3d, 0x37, 0x09, 0x26, 0x3e, 0x35, 0x86, 0x91, 0x3d,
  0x1e, 0xc1, 0x65, 0x3d, 0xb2, 0x2b, 0xc1, 0xbd, 0x56, 0x6a, 0x13, 0x3d,
  0x04, 0xb7, 0x61, 0xbd, 0xe1, 0xb0, 0xc4, 0x3d, 0x8b, 0x88, 0x2c, 0x3e,
  0x01, 0x28, 0x16, 0x3e, 0x10, 0x09, 0x42, 0xbd, 0xcf, 0xf5, 0x81, 0x3d,
  0x60, 0xf2, 0xa1, 0xbc, 0x9e, 0x13, 0x06, 0xbe, 0x3d, 0x16, 0xcf, 0xbd,
  0x50, 0x0f, 0x26, 0xbd, 0x88, 0xc2, 0x37, 0x3e, 0x04, 0x70, 0x7d, 0xbe,
  0x6f, 0x18, 0x20, 0xbd, 0x65, 0x95, 0x4f, 0xbe, 0xca, 0x19, 0xe9, 0x3b,
  0x80, 0x4b, 0x9a, 0x3d, 0x99, 0x4d, 0xf2, 0xbd, 0xc0, 0xd4, 0x23, 0x3d,
  0x06, 0xf3, 0x1e, 0x3e, 0xac, 0xb7, 0xd9, 0x3c, 0x5e, 0x80, 0x42, 0x3d,
  0x1a, 0xa8, 0x26, 0x3e, 0x4e, 0xad, 0x4b, 0x3c, 0x24, 0xc1, 0xe4, 0xbd,
  0xee, 0xaf, 0xfb, 0xbc, 0xfe, 0x48, 0x04, 0xbc, 0x22, 0xd5, 0xa0, 0x3e,
  0xd8, 0x00, 0xbc, 0xbe, 0xf7, 0xad, 0x07, 0xbf, 0x59, 0x44, 0xe6, 0xbd,
  0x64, 0x5d, 0x6a, 0x3c, 0x12, 0xb4, 0x6d, 0xbf, 0x70, 0x1d, 0x39, 0xbf,
  0x35, 0xad, 0xd9, 0x3d, 0x63, 0x5e, 0xf5, 0xbe, 0xf1, 0xc0, 0x14, 0xbf,
  0x4e, 0x8a, 0x74, 0xbd, 0xa5, 0x05, 0x92, 0x3c, 0xec, 0x16, 0x74, 0x3d,
  0x0b, 0xd7, 0x2b, 0xbc, 0xdc, 0x3f, 0xc8, 0x3e, 0x9d, 0x14, 0x70, 0xbc,
  0xbc, 0xf1, 0x34, 0xbf, 0xad, 0xd1, 0x3f, 0x3e, 0x6a, 0xfb, 0xbb, 0xbd,
  0xf3, 0xf5, 0x1e, 0xbe, 0xa3, 0xef, 0xa3, 0x3b, 0xde, 0xd5, 0xd1, 0x3d,
  0x66, 0x1e, 0xd3, 0xbd, 0xbf, 0xe8, 0x08, 0xbe, 0xe5, 0x15, 0xd4, 0xbd,
  0xf3, 0x91, 0xed, 0x3d, 0x65, 0x79, 0x01, 0xbe, 0xac, 0x54, 0x10, 0xbe,
  0xc5, 0x1d, 0x10, 0xbe, 0xa5, 0xaf, 0x5b, 0xbe, 0xe1, 0x51, 0x81, 0xbd,
  0xd4, 0xa5, 0xc1, 0xbb, 0x87, 0xd4, 0x87, 0x3e, 0xf1, 0xc5, 0xe1, 0x3d,
  0x54, 0x64, 0x01, 0x3c, 0x66, 0xda, 0x92, 0xbd, 0xb3, 0x8d, 0x0e, 0xbe,
  0x43, 0x9b, 0xc4, 0x3d, 0x64, 0xaf, 0x2b, 0xbd, 0x24, 0x62, 0x0f, 0xbe,
  0xef, 0xe6, 0x9e, 0x3d, 0x58, 0xe2, 0x15, 0x3e, 0x4c, 0x79, 0x21, 0xbe,
  0xf1, 0x3c, 0x8f, 0xbd, 0x52, 0xd6, 0x41, 0xbe, 0x46, 0x16, 0xb3, 0xbd,
  0x56, 0x50, 0x52, 0xbc, 0x0c, 0x2b, 0x77, 0xbd, 0x0b, 0xf5, 0x30, 0xbd,
  0xd8, 0x11, 0x3b, 0x3e, 0x7e, 0x2d, 0x23, 0xbd, 0x57, 0x07, 0x56, 0xbe,
  0x7f, 0xa9, 0x16, 0xbe, 0x20, 0x51, 0x85, 0x3c, 0xc8, 0xb2, 0x11, 0x3e,
  0xd1, 0x8d, 0x08, 0x3e, 0xeb, 0xb9, 0xf7, 0x3c, 0x8b, 0x04, 0x55, 0xbb,
  0x46, 0xff, 0x10, 0xbd, 0x08, 0x20, 0x8a, 0xbe, 0x90, 0x75, 0x16, 0xbd,
  0xb5, 0x5e, 0xbf, 0xbd, 0x24, 0x9f, 0x8d, 0xbc, 0x2f, 0x22, 0x3a, 0x3d,
  0x63, 0x02, 0x81, 0x3d, 0x4d, 0x3b, 0xb7, 0x3c, 0xd9, 0xf9, 0x2e, 0x3d,
  0x9f, 0xe5, 0xbb, 0xbd, 0x79, 0x0d, 0x37, 0xbc, 0x86, 0xf2, 0x82, 0x3d,
  0x19, 0x29, 0x78, 0xbd, 0xd3, 0xc3, 0xdb, 0xbd, 0xfa, 0x6a, 0x2d, 0xbe,
  0x9c, 0x90, 0x54, 0xbd, 0x7c, 0x7d, 0xeb, 0x3c, 0xfa, 0xc7, 0x44, 0xbe,
  0xfb, 0xda, 0xed, 0xbd, 0xcf, 0xf9, 0x65, 0xbd, 0xdd, 0x7f, 0xd7, 0x3d,
  0xa3, 0x8c, 0xdc, 0x3d, 0x40, 0xda, 0x52, 0xbd, 0xbe, 0xfd, 0xb5, 0x3d,
  0xa3, 0x4b, 0x25, 0x3e, 0x26, 0x9b, 0x62, 0xba, 0xe0, 0x91, 0xb5, 0xbd,
  0x7d, 0x35, 0x15, 0x3e, 0xf9, 0x66, 0xfe, 0xbd, 0x7e, 0x70, 0x18, 0xbd,
  0xe4, 0x98, 0xbc, 0xbc, 0x76, 0x0c, 0xcf, 0x3b, 0x58, 0x43, 0x06, 0xbe,
  0xa8, 0x9e, 0x4c, 0xbe, 0x2a, 0xc0, 0x20, 0xbe, 0x90, 0xc8, 0xa3, 0xba,
  0x3f, 0x11, 0x3c, 0x3d, 0xfc, 0xbf, 0x01, 0xbc, 0xed, 0x23, 0xa4, 0x3e,
  0xf3, 0x79, 0x2b, 0x3d, 0x2d, 0x31, 0x23, 0xbd, 0x72, 0x58, 0x7a, 0x3e,
  0xb4, 0x45, 0x6a, 0xbd, 0xcd, 0x44, 0x01, 0x3e, 0x6e, 0xe8, 0xd2, 0xbd,
  0xac, 0x81, 0x18, 0xbd, 0x8d, 0xbd, 0x64, 0xbe, 0xf7, 0x9e, 0x56, 0x3d,
  0x87, 0x7a, 0xd4, 0xbd, 0xf1, 0x8c, 0x7a, 0xbe, 0x78, 0xc7, 0x80, 0xbe,
  0xdb, 0xfd, 0x5d, 0x3d, 0x11, 0x47, 0x46, 0xbb, 0x2b, 0x78, 0x83, 0x3d,
  0x72, 0x30, 0x1f, 0x3e, 0x0c, 0x52, 0xac, 0xbe, 0x1b, 0x4f, 0x7d, 0xbe,
  0x41, 0x17, 0x48, 0xbe, 0xf9, 0xec, 0x70, 0xbd, 0x83, 0xeb, 0xd2, 0xbe,
  0xcc, 0x7a, 0xd7, 0xbe, 0x72, 0x50, 0x9b, 0xbd, 0x51, 0xa2, 0xbb, 0xbd,
  0x6d, 0xc1, 0x91, 0xbe, 0xa5, 0x95, 0xcd, 0x3d, 0xd4, 0x94, 0xdc, 0xbd,
  0x32, 0x91, 0x88, 0xbd, 0x87, 0x26, 0xbc, 0x3d, 0x4f, 0x88, 0x26, 0xbe,
  0xb9, 0x15, 0xff, 0x3c, 0x7d, 0x43, 0xf2, 0xbe, 0x7d, 0x27, 0x93, 0x3d,
  0x54, 0xbc, 0x69, 0xbe, 0x82, 0xa9, 0x4c, 0xbe, 0x7c, 0x4a, 0x2e, 0xbe,
  0x99, 0x1a, 0x68, 0xbe, 0x5d, 0xd3, 0x08, 0xbd, 0x7d, 0x82, 0x04, 0xbe,
  0xe5, 0xb6, 0x25, 0xbe, 0x83, 0x4f, 0xc8, 0xbd, 0x70, 0xc5, 0x12, 0xbe,
  0xaa, 0x90, 0x25, 0xbe, 0x81, 0x83, 0x06, 0xbe, 0x6b, 0x3a, 0x84, 0x3c,
  0x70, 0x0b, 0x42, 0xbe, 0xc2, 0x4d, 0xba, 0xbc, 0x1e, 0xc6, 0x3f, 0xbd,
  0x96, 0x63, 0xb9, 0x3d, 0x38, 0x6a, 0x8e, 0xbd, 0x6f, 0xe1, 0x78, 0xbd,
  0xe6, 0x40, 0x80, 0xbe, 0xa4, 0x65, 0x46, 0x3c, 0x33, 0x6b, 0xb2, 0x3c,
  0xe4, 0x2b, 0x56, 0x3d, 0x5d, 0xfb, 0xa5, 0xbe, 0x2f, 0x6b, 0xde, 0x3d,
  0xcb, 0xb9, 0x3f, 0xbd, 0x60, 0xd2, 0x0b, 0x3d, 0x23, 0xe7, 0x6e, 0xbe,
  0xd6, 0x78, 0x2f, 0xbd, 0x03, 0x5c, 0x1c, 0xbe, 0x9b, 0x83, 0x60, 0x3d,
  0x9f, 0xc6, 0x23, 0xbd, 0x95, 0x25, 0xf4, 0xbc, 0x63, 0x08, 0x42, 0x3d,
  0x1b, 0x19, 0xc9, 0x3d, 0x01, 0xbe, 0x8a, 0xbc, 0x07, 0x1e, 0xff, 0x3c,
  0x1a, 0xd3, 0x2a, 0xbc, 0xc3, 0x03, 0x21, 0x3e, 0xd2, 0x66, 0xf3, 0xbe,
  0xf0, 0xc2, 0xff, 0x3d, 0x23, 0x42, 0x39, 0xbd, 0xa4, 0x34, 0x62, 0x3d,
  0xa8, 0x83, 0x89, 0xbd, 0x6a, 0x07, 0xe5, 0x3c, 0x0f, 0x7f, 0x5f, 0xbd,
  0xdc, 0x45, 0x38, 0xbd, 0x2c, 0x29, 0xcd, 0x3d, 0x0f, 0x66, 0x39, 0x3e,
  0x7f, 0x5e, 0xec, 0x3c, 0xda, 0x93, 0x05, 0x3d, 0xf8, 0xfb, 0x74, 0xbd,
  0xca, 0x87, 0xbb, 0x3d, 0x3f, 0x45, 0x60, 0x3d, 0x6d, 0x3d, 0x2a, 0xbe,
  0x1e, 0x92, 0xa0, 0xbe, 0x3e, 0x00, 0xf3, 0x3d, 0x8c, 0x31, 0x6a, 0x3d,
  0x78, 0x80, 0xf6, 0xbd, 0x58, 0x23, 0x09, 0xbd, 0x20, 0x91, 0xcd, 0xbd,
  0x26, 0xb0, 0xea, 0xbd, 0x48, 0xcf, 0x3a, 0xbd, 0x88, 0x16, 0xa1, 0x3d,
  0x0c, 0x73, 0x08, 0xbd, 0xd0, 0xf8, 0x30, 0x3e, 0x00, 0xb8, 0x0c, 0xbd,
  0xf6, 0xae, 0x1b, 0xbe, 0x10, 0xb9, 0x93, 0x3d, 0x2a, 0x43, 0x22, 0x3d,
  0x77, 0xa5, 0x0f, 0x3e, 0xe1, 0x40, 0x4d, 0xbe, 0xca, 0xc5, 0x01, 0x3d,
  0x83, 0x36, 0x1f, 0xbe, 0x1a, 0xd2, 0xb8, 0xbd, 0xa4, 0xed, 0xa2, 0xbd,
  0x5e, 0xb9, 0x85, 0xbc, 0xcf, 0x7b, 0xf7, 0xbc, 0x31, 0xc7, 0x6f, 0xbc,
  0xa2, 0x7b, 0x07, 0x3d, 0xbf, 0x08, 0x8a, 0xbe, 0x39, 0x08, 0xfe, 0xbd,
  0x3d, 0x49, 0x7b, 0xbe, 0x55, 0xd3, 0xa8, 0xbb, 0x46, 0x05, 0x1c, 0xbd,
  0x3f, 0x3d, 0xbd, 0xbc, 0xc8, 0xc2, 0xc6, 0x3d, 0x51, 0x15, 0xc5, 0x3e,
  0x04, 0x7b, 0x34, 0xbe, 0x72, 0xbb, 0xf1, 0xbc, 0xba, 0x6a, 0xa1, 0xbd,
  0xbf, 0xea, 0x3a, 0xbe, 0xcb, 0xac, 0x02, 0xbe, 0xfc, 0xe3, 0x1d, 0xbe,
  0x06, 0xaf, 0x02, 0xbc, 0x0d, 0xc5, 0x2d, 0x3d, 0xc0, 0xa5, 0x77, 0xbc,
  0x6d, 0x10, 0x3d, 0x3e, 0x64, 0x38, 0x06, 0xbe, 0x96, 0x95, 0x18, 0xbe,
  0xea, 0x9f, 0xd4, 0x3e, 0x80, 0x16, 0x24, 0x3e, 0x02, 0x41, 0xcc, 0x3d,
  0x21, 0xc7, 0x04, 0xbe, 0x0c, 0xdd, 0x3e, 0xbd, 0x96, 0x95, 0x74, 0x3e,
  0xfb, 0x92, 0xea, 0xbd, 0xa4, 0x16, 0xee, 0xbc, 0x9b, 0x40, 0x0d, 0x3e,
  0xbb, 0x48, 0x02, 0xbd, 0x3b, 0x12, 0xe4, 0x3b, 0x1a, 0x41, 0x76, 0x3d,
  0xe2, 0x28, 0x06, 0xbe, 0x7b, 0xd3, 0xc4, 0x3d, 0x3e, 0x48, 0x67, 0x3e,
  0xc7, 0xdb, 0x82, 0xbe, 0xf8, 0x1f, 0xcb, 0xbd, 0x85, 0xb6, 0x3e, 0x3e,
  0x23, 0xd5, 0x18, 0xbe, 0xa8, 0x53, 0xf2, 0x3c, 0x5d, 0xc4, 0x1a, 0xbe,
  0x4d, 0x45, 0xbd, 0x3e, 0x40, 0x9c, 0xd7, 0xbe, 0x11, 0x81, 0x1a, 0xbe,
  0x6b, 0x20, 0x68, 0x3e, 0xff, 0xb8, 0x9a, 0x3d, 0xfa, 0xf8, 0x76, 0x3e,
  0x20, 0xe8, 0x19, 0x3e, 0x86, 0xb7, 0xf4, 0xbd, 0x4b, 0x42, 0x19, 0xbd,
  0x19, 0x91, 0x08, 0x3e, 0xf4, 0xe4, 0x0e, 0xbc, 0x2e, 0x68, 0xed, 0xbd,
  0x92, 0x89, 0x24, 0x3e, 0x22, 0x1f, 0xd9, 0xbd, 0x67, 0xe5, 0x16, 0xbd,
  0xd6, 0xf1, 0x0a, 0xbe, 0xe3, 0x78, 0x92, 0x3e, 0x2e, 0xda, 0xc7, 0xbe,
  0x6c, 0x2d, 0xe8, 0xbc, 0xf6, 0xd4, 0x89, 0x3e, 0xe5, 0x17, 0x84, 0x3e,
  0xff, 0x21, 0xa7, 0x3d, 0x34, 0x39, 0xe1, 0x3d, 0xfd, 0xfd, 0x15, 0xbe,
  0xcd, 0xe1, 0xea, 0xbc, 0x4f, 0x8f, 0x06, 0x3e, 0x60, 0x3f, 0xab, 0xbd,
  0x6f, 0x6d, 0x29, 0xbd, 0xb7, 0x52, 0x8e, 0x3e, 0x79, 0x7c, 0x44, 0xbe,
  0x80, 0xc6, 0x5c, 0x3c, 0x21, 0x9a, 0x62, 0xbd, 0x69, 0xa9, 0x9a, 0x3e,
  0x54, 0xff, 0x13, 0xbe, 0xa0, 0xac, 0x56, 0xbe, 0xe8, 0x1e, 0x78, 0x3d,
  0xa6, 0x08, 0x8c, 0x3e, 0x1d, 0x06, 0x2b, 0x3e, 0x04, 0x32, 0xdf, 0xbd,
  0xa0, 0x03, 0x44, 0x3c, 0x34, 0xb6, 0x9c, 0xbd, 0x6f, 0x68, 0x6b, 0x3b,
  0xf1, 0x88, 0x81, 0xbe, 0x2e, 0x9f, 0xfb, 0xbd, 0x6e, 0x50, 0xa8, 0x3e,
  0xc7, 0xcf, 0x85, 0x3d, 0xe7, 0x8d, 0x8d, 0xbd, 0x32, 0x92, 0x3a, 0xbe,
  0x3f, 0x2b, 0x2a, 0x3e, 0x2c, 0xd4, 0x5a, 0xbd, 0x58, 0xef, 0x5a, 0xbd,
  0x41, 0xcb, 0x52, 0x3d, 0xce, 0x76, 0x00, 0xbe, 0xb6, 0xdc, 0x00, 0x3e,
  0x32, 0x31, 0x93, 0x3c, 0xd8, 0x19, 0x92, 0xbe, 0xed, 0x59, 0xa4, 0x3c,
  0xf2, 0xe0, 0x24, 0xbe, 0x94, 0x1b, 0x40, 0xbe, 0x6a, 0x30, 0x7f, 0xbe,
  0x3c, 0xcf, 0xce, 0x3c, 0xbf, 0x37, 0x4b, 0x3e, 0xcd, 0x4e, 0xb4, 0x3b,
  0x9e, 0xc1, 0xb4, 0xbd, 0xf3, 0xa5, 0x6b, 0x3e, 0xec, 0x12, 0xd9, 0xbd,
  0x0b, 0x70, 0x2e, 0xbe, 0xbc, 0x75, 0x4c, 0x3e, 0xba, 0x33, 0xf3, 0xbc,
  0xbb, 0x40, 0xae, 0x3d, 0x03, 0x6a, 0xb1, 0x3d, 0x45, 0x67, 0x5a, 0xbd,
  0xce, 0x0d, 0xc2, 0x3b, 0x5f, 0xfc, 0xb6, 0xbd, 0x12, 0xdf, 0x6a, 0xbe,
  0x2e, 0x2e, 0x1f, 0xbe, 0x46, 0x4a, 0xd1, 0x3e, 0x72, 0xb4, 0xa3, 0x3e,
  0xf0, 0x6d, 0x8a, 0x3d, 0xc9, 0x84, 0x70, 0x3c, 0xdb, 0x99, 0xc6, 0x3d,
  0x37, 0x9b, 0xb1, 0x3c, 0xfd, 0xa2, 0x14, 0xbe, 0xac, 0xfd, 0xb6, 0x3d,
  0x9c, 0xf4, 0x60, 0x3e, 0x05, 0xab, 0x1d, 0x3e, 0x45, 0x04, 0x44, 0xbe,
  0x5a, 0xd8, 0xdf, 0xbe, 0x41, 0xf1, 0x71, 0xbe, 0x47, 0xb1, 0x8a, 0x3d,
  0x3f, 0x5e, 0x4f, 0x3f, 0x76, 0x5d, 0x20, 0xbd, 0x18, 0x49, 0xe2, 0xbe,
  0x6e, 0x11, 0xe8, 0x3e, 0x6e, 0x34, 0x47, 0x3d, 0xec, 0x8e, 0x06, 0xbf,
  0x5f, 0x32, 0xd0, 0xbe, 0xcb, 0x2d, 0xe9, 0xbe, 0xc4, 0xe6, 0xf0, 0xbe,
  0xde, 0x48, 0x60, 0xbe, 0x37, 0xd9, 0x2e, 0xbe, 0xa8, 0x21, 0x33, 0x3e,
  0x56, 0x32, 0x06, 0xbf, 0x47, 0x18, 0xcc, 0xbd, 0x4c, 0xc8, 0x6d, 0xbd,
  0x7a, 0xaa, 0x5f, 0x3d, 0x20, 0x89, 0x59, 0x3f, 0x32, 0x2a, 0x04, 0xbe,
  0x3b, 0xef, 0xd6, 0x3d, 0x7d, 0x43, 0x1f, 0x3f, 0xaa, 0xb5, 0x89, 0x3d,
  0x63, 0x88, 0x1d, 0x3a, 0x02, 0xb9, 0xea, 0x3c, 0x4b, 0xbd, 0xed, 0x3d,
  0xde, 0xa9, 0xe4, 0x3e, 0x0b, 0x72, 0xa8, 0xbd, 0xee, 0x34, 0x16, 0x3e,
  0x1c, 0x8e, 0x6e, 0x3c, 0x3f, 0x7b, 0x2f, 0x3e, 0xcc, 0x58, 0xce, 0xbc,
  0x84, 0x07, 0xe4, 0xbc, 0xdc, 0xfd, 0x32, 0xbe, 0x4d, 0xda, 0x86, 0x3f,
  0xb1, 0x09, 0x54, 0xbd, 0x67, 0x97, 0xb0, 0xbd, 0x0d, 0x47, 0x38, 0x3f,
  0x16, 0x5b, 0x27, 0x3d, 0x90, 0x73, 0xdd, 0x3c, 0xad, 0xb9, 0x30, 0xbd,
  0x86, 0xe5, 0x41, 0x3e, 0x3d, 0x13, 0x6e, 0x3e, 0xf3, 0x81, 0xf0, 0x3d,
  0xfc, 0x31, 0x3e, 0x3d, 0x12, 0x0a, 0x46, 0x3e, 0x73, 0x1f, 0xc5, 0x3d,
  0xfc, 0x92, 0x47, 0xbe, 0xae, 0x32, 0x0c, 0xbc, 0xba, 0xa9, 0xa9, 0xbb,
  0x51, 0x82, 0x85, 0x3f, 0x2f, 0x18, 0x72, 0xbe, 0xac, 0xda, 0x75, 0xbe,
  0xb6, 0x57, 0x05, 0x3f, 0x76, 0x4f, 0xda, 0x3c, 0x2b, 0x78, 0x9d, 0xbd,
  0xa1, 0x21, 0x2d, 0x3e, 0x91, 0x77, 0x8d, 0x3d, 0x12, 0x25, 0x81, 0x3d,
  0x33, 0x8f, 0xfa, 0xbd, 0x5c, 0xd4, 0x1d, 0xbe, 0x68, 0x21, 0xc8, 0x3d,
  0x0f, 0x36, 0x1f, 0x3d, 0xca, 0x9d, 0x39, 0xbe, 0xd9, 0x84, 0x83, 0x3d,
  0xaa, 0x2e, 0x20, 0xbc, 0xa2, 0xf2, 0x69, 0x3f, 0x8a, 0x05, 0x82, 0xbe,
  0x22, 0x65, 0x27, 0xbe, 0xf8, 0xdd, 0x5d, 0x3f, 0x9a, 0xfb, 0xe4, 0x3d,
  0x33, 0xd1, 0x86, 0xbd, 0x7e, 0xbb, 0xce, 0x3c, 0xf7, 0x06, 0x11, 0xbe,
  0xea, 0x36, 0x82, 0xbd, 0xf7, 0xbb, 0x2b, 0xbe, 0x15, 0xe7, 0x17, 0x3e,
  0x72, 0xb3, 0xcb, 0x3d, 0x21, 0xa7, 0x14, 0xbd, 0xc8, 0x9c, 0x41, 0xbd,
  0x23, 0xb6, 0x5d, 0xbc, 0xcb, 0x9c, 0xb6, 0xbd, 0xf2, 0x42, 0x86, 0x3f,
  0xda, 0x21, 0xba, 0xbd, 0x11, 0xe5, 0x02, 0x3d, 0x08, 0x3c, 0xc6, 0x3e,
  0x44, 0x0d, 0x21, 0x3d, 0xab, 0x44, 0x25, 0xbd, 0xed, 0x86, 0x8d, 0x3d,
  0x69, 0xaa, 0x34, 0x3e, 0x9b, 0x2d, 0x9f, 0x3e, 0xd1, 0x71, 0x1f, 0xbe,
  0xa4, 0xaf, 0x51, 0xbd, 0x1f, 0xda, 0xb4, 0x3d, 0x89, 0x9d, 0x26, 0x3e,
  0x1c, 0x98, 0x0c, 0xbe, 0x4b, 0xa3, 0xe9, 0xbd, 0x5f, 0xf0, 0xb0, 0x3b,
  0x8b, 0x21, 0x77, 0x3f, 0x02, 0xa4, 0xda, 0xbd, 0x4e, 0xfe, 0xd0, 0xbd,
  0xb1, 0x38, 0x11, 0xbf, 0x24, 0xf8, 0x45, 0x3d, 0xda, 0x7b, 0xaf, 0xbc,
  0x33, 0x53, 0x94, 0x3c, 0x89, 0x42, 0x99, 0x3d, 0xaf, 0xdc, 0x06, 0xbe,
  0xc1, 0x54, 0xa8, 0x3c, 0xf1, 0x8f, 0x93, 0xbc, 0x4a, 0x07, 0x50, 0xbb,
  0x18, 0xfa, 0x57, 0x3d, 0xf5, 0x3c, 0xb6, 0xbe, 0xe3, 0x17, 0x87, 0xbe,
  0xf6, 0x8e, 0x8e, 0x3d, 0x2e, 0x75, 0x6a, 0x3d, 0xf0, 0x2c, 0xb9, 0xbe,
  0x86, 0xef, 0xd4, 0xbe, 0xf3, 0x25, 0xce, 0x3e, 0xb1, 0xbf, 0x15, 0x3d,
  0x24, 0x8b, 0x9a, 0xbe, 0xd4, 0xba, 0x0a, 0xbd, 0x87, 0xff, 0xa5, 0xbe,
  0x4c, 0x3a, 0x6c, 0xbd, 0x15, 0xf1, 0xdc, 0xbd, 0xc8, 0x34, 0x6a, 0xbe,
  0x09, 0x23, 0x4f, 0xbc, 0x1b, 0x67, 0xb1, 0xbe, 0x66, 0x35, 0x53, 0xbd,
  0x48, 0x92, 0x36, 0xbe, 0x9f, 0x5d, 0xd7, 0x3d, 0x0b, 0x4a, 0x41, 0xbd,
  0x5a, 0x4b, 0xa7, 0xbe, 0xcc, 0xcb, 0x3c, 0xbe, 0xd7, 0x4c, 0xca, 0x3d,
  0x12, 0xce, 0xf2, 0x3d, 0xee, 0x44, 0x91, 0xbe, 0xe9, 0x87, 0xbc, 0xbd,
  0x41, 0xc8, 0xa2, 0xbd, 0x14, 0xee, 0x34, 0xbd, 0xcb, 0x34, 0xeb, 0xbc,
  0xa6, 0x79, 0xd1, 0xbd, 0xc0, 0xa2, 0x1e, 0x3c, 0xcc, 0xb7, 0x75, 0xbd,
  0x57, 0xbb, 0x2c, 0xbe, 0x68, 0x24, 0x89, 0xbe, 0xa6, 0x6d, 0xa4, 0xbd,
  0x54, 0x1c, 0x31, 0x3e, 0xcd, 0x0b, 0xc1, 0xbe, 0x47, 0xc1, 0xef, 0xbd,
  0x08, 0xc9, 0x68, 0x3e, 0x42, 0x1b, 0x8c, 0x3c, 0x1d, 0xea, 0x93, 0xbe,
  0x8f, 0xfc, 0xd1, 0x3c, 0x07, 0xde, 0xb4, 0x3b, 0x00, 0x54, 0x6a, 0x3c,
  0xb4, 0xb3, 0x59, 0xbd, 0x8f, 0x9f, 0xc3, 0x3d, 0x33, 0x93, 0xf0, 0xbc,
  0xcf, 0x62, 0x22, 0xbe, 0x39, 0x4c, 0x37, 0x3e, 0xc6, 0xe5, 0xc6, 0xbe,
  0x38, 0x10, 0xff, 0xbd, 0x34, 0xcd, 0xdd, 0x3e, 0x12, 0xbe, 0xfc, 0xbd,
  0x93, 0xb8, 0xb6, 0xbc, 0x63, 0xeb, 0x86, 0x3e, 0x1e, 0x0b, 0x52, 0xbe,
  0x26, 0xa0, 0xd3, 0x3d, 0xfb, 0x39, 0x37, 0xbd, 0x52, 0xc2, 0xe1, 0xbd,
  0xe6, 0xe4, 0x9d, 0xbd, 0xe2, 0x2a, 0x4d, 0xbd, 0x21, 0x7d, 0xbb, 0x3d,
  0x4a, 0x49, 0xfc, 0xbc, 0x56, 0xa4, 0x9f, 0x3d, 0xb7, 0xc6, 0x60, 0x3e,
  0x7a, 0x52, 0x11, 0xbe, 0xaa, 0xb0, 0x2f, 0x3e, 0x80, 0xed, 0x7f, 0x3e,
  0xc7, 0x45, 0x8a, 0x3b, 0xb4, 0x5d, 0xb2, 0xbd, 0x54, 0xf9, 0x92, 0x3e,
  0x8f, 0x88, 0x9e, 0xbe, 0x1e, 0x55, 0x11, 0x3e, 0x8f, 0x1e, 0x81, 0x3d,
  0xf3, 0xf7, 0xe0, 0xbd, 0x02, 0x5c, 0xab, 0xbc, 0xb5, 0xad, 0xcd, 0xbd,
  0xdf, 0x30, 0x29, 0xbb, 0x66, 0x66, 0x07, 0xbd, 0x47, 0x7c, 0x5a, 0x3e,
  0x6b, 0x6e, 0xbd, 0x3a, 0x61, 0xc2, 0x91, 0xbc, 0x72, 0xff, 0xe7, 0xbd,
  0xb3, 0x61, 0xa6, 0x3e, 0x01, 0xbc, 0x4a, 0x3e, 0xce, 0xbf, 0xe2, 0xbd,
  0xa6, 0xdd, 0x85, 0x3a, 0x14, 0x31, 0x9d, 0x3d, 0xd9, 0x10, 0x65, 0x3d,
  0xc2, 0xb1, 0x5d, 0x3b, 0xd4, 0xc8, 0x9f, 0x3c, 0xa7, 0x63, 0xdd, 0xbd,
  0x68, 0xb6, 0x08, 0xbe, 0x3d, 0x7e, 0x0f, 0x3d, 0xb6, 0x61, 0xe0, 0xbd,
  0x02, 0x6a, 0x5e, 0x3e, 0x26, 0x0b, 0x26, 0x3e, 0x3f, 0x00, 0x13, 0xbd,
  0x4c, 0x80, 0x1f, 0xbe, 0x89, 0x27, 0x48, 0x3c, 0x98, 0x1c, 0xb5, 0x3d,
  0xbe, 0xb1, 0x65, 0xbe, 0x97, 0x6e, 0x90, 0x3e, 0x70, 0x2a, 0x88, 0xbd,
  0xdf, 0xda, 0x80, 0x3c, 0x3f, 0x83, 0xad, 0xbb, 0x4f, 0xfb, 0xbd, 0x3d,
  0x48, 0xf3, 0x6b, 0xbe, 0x5f, 0xc8, 0x62, 0xbe, 0xa9, 0x03, 0x0c, 0x3e,
  0xc9, 0x00, 0xa1, 0xbd, 0x50, 0xa7, 0x5b, 0x3e, 0xc3, 0xcd, 0x0a, 0xbe,
  0x70, 0xbb, 0x9f, 0xbe, 0x16, 0x2c, 0x2c, 0x3e, 0xbc, 0x3c, 0x5a, 0xbe,
  0x3b, 0x5a, 0x21, 0xbf, 0xab, 0xb9, 0xc8, 0xbe, 0x02, 0x89, 0xf2, 0xbc,
  0x4d, 0x13, 0x18, 0xbe, 0xa0, 0xac, 0xc9, 0xbe, 0x78, 0x36, 0xac, 0x3c,
  0xc3, 0x69, 0x1f, 0x3c, 0x48, 0xe5, 0x84, 0xbe, 0x1f, 0x57, 0x02, 0x3e,
  0xc8, 0x3b, 0x05, 0x3d, 0x75, 0xad, 0x1d, 0x3e, 0x33, 0xa4, 0x11, 0xbf,
  0x20, 0x77, 0x5b, 0x3e, 0xc0, 0xb6, 0x47, 0x3d, 0xd9, 0x2c, 0xe5, 0x3d,
  0x68, 0x77, 0xb4, 0x3d, 0xb2, 0x5d, 0x60, 0x3e, 0xf2, 0xd0, 0x18, 0x3e,
  0x69, 0xc6, 0x5e, 0xbd, 0x31, 0x18, 0x89, 0xbe, 0x96, 0x44, 0x48, 0x3e,
  0x0b, 0x39, 0xe6, 0x3d, 0x5a, 0x6c, 0x2d, 0xbe, 0x35, 0xf1, 0x84, 0xbe,
  0xba, 0x8f, 0x56, 0xbe, 0x85, 0x70, 0x08, 0x3e, 0xc0, 0x1d, 0x5c, 0x3e,
  0x3a, 0x5f, 0xea, 0x3e, 0x3b, 0xe8, 0xbc, 0x3c, 0x9b, 0x25, 0xb8, 0x3d,
  0x91, 0x5f, 0x43, 0x3e, 0xc9, 0x67, 0xa8, 0xbd, 0x0d, 0x87, 0x2a, 0x3e,
  0x52, 0xa3, 0x69, 0xbd, 0x1c, 0x57, 0x03, 0xbe, 0x56, 0xd6, 0xdf, 0xbd,
  0x4f, 0x95, 0xbd, 0x3d, 0x57, 0xc7, 0x28, 0x3d, 0x00, 0xdc, 0x3f, 0xbe,
  0x3b, 0x5e, 0xf8, 0xbd, 0x66, 0x13, 0xae, 0x3d, 0x60, 0xf8, 0x36, 0x3e,
  0xca, 0x87, 0x0d, 0x3e, 0xcf, 0xc5, 0x38, 0x3d, 0x06, 0x7f, 0xfd, 0xbc,
  0x01, 0x6f, 0xe6, 0xbc, 0x9e, 0xca, 0x2e, 0x3e, 0xf2, 0xc2, 0xa3, 0xbd,
  0x38, 0x1b, 0xb4, 0x3c, 0xa0, 0x11, 0x27, 0xbe, 0xad, 0xe9, 0x0d, 0x3d,
  0xec, 0x2e, 0x7b, 0xbc, 0x2f, 0xed, 0xf1, 0xbb, 0xf3, 0x76, 0x18, 0xbe,
  0x7a, 0x54, 0x64, 0xbe, 0x85, 0xda, 0xa1, 0xbd, 0x64, 0x67, 0xd3, 0xbd,
  0xee, 0xd2, 0x6a, 0x3e, 0x0a, 0x8c, 0x32, 0x3e, 0xd9, 0x8a, 0xa2, 0x3d,
  0x26, 0x8f, 0x9e, 0xbd, 0x67, 0xf5, 0x6b, 0xbe, 0xa9, 0x52, 0xb7, 0xbd,
  0x7d, 0xf6, 0x73, 0xbe, 0x77, 0xe3, 0x10, 0xbe, 0x98, 0x4c, 0xd1, 0x3c,
  0xe5, 0xfd, 0x69, 0xbe, 0x71, 0x02, 0x88, 0x3d, 0xb8, 0x22, 0x8c, 0xbe,
  0xb9, 0x84, 0xdb, 0x3d, 0x09, 0xff, 0x0b, 0xbe, 0xe3, 0xb4, 0x46, 0xbe,
  0xcd, 0x48, 0x7d, 0x3d, 0x41, 0xe7, 0x87, 0x3e, 0x50, 0x39, 0x06, 0x3d,
  0x24, 0x52, 0x3f, 0x3c, 0x0d, 0x11, 0x10, 0x3e, 0x1d, 0x98, 0x92, 0xbe,
  0x24, 0x9e, 0x54, 0xbe, 0x91, 0xc2, 0x31, 0xbe, 0x56, 0xf8, 0xec, 0xbd,
  0x5f, 0x08, 0xa5, 0x3c, 0x6c, 0x2d, 0x69, 0xbe, 0xad, 0x42, 0x90, 0xbc,
  0x9d, 0x8a, 0x70, 0x3c, 0x5c, 0x7e, 0x66, 0x3d, 0xf2, 0xae, 0x5c, 0xbd,
  0xbd, 0xd7, 0xda, 0x3b, 0x19, 0x81, 0x6b, 0xbe, 0xed, 0xde, 0x41, 0x3e,
  0x61, 0x39, 0x85, 0xbd, 0x98, 0xe9, 0xbd, 0xbd, 0xa9, 0x80, 0x41, 0x3e,
  0x58, 0xb7, 0xa1, 0x3c, 0xb4, 0xc4, 0x04, 0xbe, 0x77, 0x0f, 0x2d, 0xbe,
  0xe2, 0xb0, 0x28, 0xba, 0xdf, 0xfd, 0xda, 0xbd, 0x20, 0xc4, 0x80, 0xbd,
  0x08, 0xb8, 0xca, 0xbe, 0x5c, 0xa5, 0x3b, 0x3e, 0x53, 0x8a, 0xca, 0x3d,
  0x23, 0x7f, 0x4c, 0xbe, 0x07, 0xf2, 0x8e, 0xbe, 0xd8, 0x1f, 0x3e, 0x3e,
  0x54, 0xe3, 0x00, 0xbe, 0xa0, 0x78, 0xe3, 0xbc, 0x82, 0x58, 0xe9, 0x3d,
  0xbe, 0x90, 0x85, 0x3d, 0x82, 0x5a, 0x5e, 0xbd, 0x5a, 0x03, 0xf4, 0xbd,
  0x53, 0x9f, 0xf7, 0xbd, 0xb9, 0x5a, 0x15, 0x3f, 0xf7, 0x77, 0x5c, 0x3e,
  0x61, 0x5a, 0x11, 0xbd, 0x89, 0xee, 0x6a, 0xbd, 0x3b, 0x98, 0x1f, 0x3c,
  0x7b, 0xb0, 0x2e, 0x3e, 0xdf, 0x7b, 0x9c, 0xbd, 0xd6, 0xf0, 0x4a, 0xbd,
  0x22, 0x4f, 0x1d, 0x3d, 0x29, 0x7f, 0x29, 0x3e, 0x62, 0x4c, 0x29, 0x3d,
  0xa2, 0xe2, 0x49, 0x3d, 0xf3, 0x49, 0x11, 0xbd, 0xb3, 0x41, 0x62, 0xbd,
  0xf9, 0x63, 0x73, 0xbd, 0xcd, 0x8d, 0x2c, 0xbe, 0xf7, 0xe5, 0x5e, 0xbd,
  0xef, 0x4a, 0x86, 0x3e, 0xd5, 0xd4, 0x32, 0xbe, 0x8f, 0xe4, 0x4a, 0x3d,
  0x00, 0x6b, 0x0b, 0xbe, 0x1a, 0xa6, 0x0d, 0xbd, 0x08, 0x04, 0xf2, 0xbd,
  0x9d, 0xc2, 0x8f, 0xbe, 0x1a, 0x8d, 0xbe, 0x3d, 0x58, 0x5c, 0x68, 0xbe,
  0xac, 0x89, 0xb6, 0xbb, 0xcf, 0x90, 0x10, 0x3c, 0x97, 0x87, 0x71, 0xbe,
  0x9d, 0xa5, 0x1e, 0xbe, 0xfb, 0x08, 0x41, 0x3e, 0xc9, 0xe7, 0x68, 0x3e,
  0x3e, 0x73, 0x48, 0xbd, 0xf1, 0x1f, 0xa3, 0x3e, 0x15, 0xd5, 0xc8, 0xbe,
  0x1b, 0x7f, 0xde, 0x3d, 0x5d, 0x48, 0x43, 0x3c, 0x2e, 0xe5, 0xd3, 0xbc,
  0xfd, 0x76, 0xb1, 0xbb, 0x0f, 0xd7, 0xc4, 0xbc, 0xb5, 0x4e, 0xcb, 0x3d,
  0xfd, 0x8b, 0xa6, 0xbd, 0x5b, 0x06, 0xe5, 0xbb, 0x79, 0xab, 0x41, 0xbc,
  0x9b, 0x17, 0x0c, 0xbe, 0xe5, 0x1c, 0xde, 0xbd, 0x23, 0xb2, 0x38, 0xbe,
  0xc5, 0xa7, 0xa0, 0xbe, 0x8b, 0x6e, 0x5f, 0xbd, 0x46, 0x94, 0x9e, 0x3e,
  0x5a, 0x88, 0xf8, 0x3d, 0x4f, 0x0f, 0x2f, 0x3d, 0xbb, 0x76, 0x7b, 0xbd,
  0xa1, 0x08, 0x0d, 0xbe, 0xaa, 0x22, 0xb4, 0xbc, 0x05, 0x32, 0xdf, 0xbd,
  0x43, 0x87, 0x0c, 0x3e, 0x86, 0x1e, 0x0f, 0x3e, 0x43, 0xcb, 0xc7, 0x3d,
  0x5b, 0x7d, 0x91, 0x3d, 0x43, 0xb4, 0x4d, 0xbe, 0x11, 0xa1, 0xcc, 0xbd,
  0xa7, 0xe5, 0x9d, 0xba, 0x99, 0x78, 0x05, 0xbe, 0xdb, 0xf3, 0x1e, 0x3b,
  0x49, 0x5e, 0x48, 0xbd, 0x1d, 0xaf, 0xbe, 0xbe, 0x17, 0x4c, 0x39, 0x3d,
  0xdb, 0x0d, 0x9e, 0x3c, 0x3f, 0x42, 0x37, 0x3e, 0x38, 0xa0, 0x81, 0xbd,
  0xb1, 0x91, 0xd5, 0xbd, 0xc3, 0xba, 0x61, 0xbd, 0x91, 0x82, 0xcd, 0xbd,
  0xc1, 0x9e, 0x17, 0x3e, 0xf5, 0xcc, 0xfa, 0x3d, 0x3a, 0xfb, 0x85, 0xbe,
  0xd4, 0x42, 0x14, 0x3c, 0x06, 0xe3, 0x84, 0x3c, 0x44, 0xae, 0x8e, 0xbe,
  0x95, 0x32, 0xd2, 0xbd, 0x8a, 0x74, 0x59, 0x3e, 0x2c, 0x97, 0xa4, 0xbe,
  0x7c, 0xb5, 0x8a, 0xbc, 0x13, 0xce, 0x82, 0xbd, 0xc6, 0xea, 0xf2, 0x3d,
  0x89, 0x0a, 0xe0, 0xbc, 0x17, 0xc0, 0x89, 0xbd, 0x18, 0x85, 0xb2, 0x3e,
  0x17, 0xe4, 0x55, 0xbd, 0xff, 0xb8, 0x63, 0x3e, 0x34, 0xc9, 0x61, 0xbd,
  0xf3, 0x65, 0x8a, 0xbe, 0x9e, 0x95, 0xd9, 0x3b, 0x3e, 0x05, 0xea, 0xbd,
  0xa4, 0xc7, 0x8e, 0x3e, 0xdc, 0x59, 0x39, 0xbe, 0x5e, 0x52, 0xd6, 0x3e,
  0x0f, 0xa7, 0x80, 0x3e, 0xba, 0x0d, 0x37, 0x3d, 0x86, 0x54, 0x84, 0xbd,
  0x20, 0x62, 0x8a, 0x3e, 0x90, 0x1b, 0xe2, 0x3c, 0xde, 0xbc, 0x09, 0xbd,
  0x1c, 0x8c, 0xc6, 0x3e, 0x00, 0xfe, 0xbb, 0xbc, 0xd1, 0xa2, 0xaa, 0x3c,
  0x8d, 0x76, 0xb7, 0xbd, 0x01, 0x84, 0x2c, 0x3d, 0x1c, 0xd1, 0xbf, 0x3e,
  0x44, 0x7a, 0x08, 0x3d, 0xc1, 0xfb, 0x2a, 0xbe, 0x84, 0x5b, 0x20, 0x3f,
  0xdc, 0x78, 0x7a, 0x3d, 0xf4, 0x56, 0x33, 0xbe, 0xac, 0x2c, 0xb8, 0xbd,
  0x34, 0xd9, 0x6e, 0x3e, 0x22, 0x93, 0x0a, 0x3f, 0x47, 0x13, 0x36, 0xbe,
  0xba, 0x15, 0x81, 0xbe, 0x1f, 0xc8, 0x24, 0x3e, 0x56, 0x4e, 0xb9, 0x3d,
  0xc2, 0x57, 0x41, 0x3e, 0x44, 0x6c, 0xe2, 0x3d, 0x54, 0x96, 0xbe, 0xbd,
  0x4c, 0x8e, 0x1f, 0x3d, 0x6b, 0x38, 0x02, 0xbd, 0xeb, 0xd0, 0xc7, 0xbc,
  0x49, 0x0c, 0xd5, 0x3b, 0xe2, 0xcb, 0x67, 0xbd, 0xf4, 0x4c, 0x78, 0xbe,
  0x88, 0xd3, 0xd5, 0x3c, 0x64, 0x54, 0x2e, 0xbe, 0x1a, 0xce, 0xed, 0x3d,
  0x64, 0xba, 0xc1, 0xbe, 0x0b, 0x5e, 0x62, 0xbe, 0x97, 0x4d, 0x7c, 0x3e,
  0xb6, 0xcf, 0xf3, 0xbd, 0x92, 0x0b, 0x62, 0x3e, 0x5b, 0x09, 0x75, 0xbe,
  0xca, 0x88, 0x19, 0x3d, 0x10, 0x67, 0x89, 0xbd, 0xf2, 0x6e, 0xd2, 0x3d,
  0xc9, 0xcf, 0x6f, 0xbe, 0x6f, 0x10, 0x91, 0x3d, 0x23, 0x19, 0x79, 0xbc,
  0xe8, 0x4e, 0x92, 0x3c, 0x34, 0x64, 0x96, 0x3d, 0x48, 0xb8, 0x7c, 0xbd,
  0xc4, 0x6b, 0x55, 0x3d, 0x0d, 0xf6, 0x8a, 0xbe, 0x7f, 0x46, 0x38, 0xbd,
  0xb4, 0x28, 0xb3, 0x3e, 0xd0, 0xea, 0x04, 0xbd, 0xd0, 0xf3, 0x92, 0x3d,
  0x89, 0x6f, 0x4c, 0x3e, 0x77, 0xa0, 0x85, 0x3d, 0x8f, 0x45, 0x59, 0x3c,
  0x31, 0x95, 0x10, 0x3e, 0x4d, 0xc8, 0x9a, 0xbd, 0x32, 0x45, 0x32, 0x3e,
  0x7f, 0x8c, 0x8d, 0x3d, 0xce, 0xe0, 0x03, 0xbe, 0x48, 0x49, 0x6d, 0x3d,
  0x47, 0xc5, 0xab, 0x3d, 0x75, 0x99, 0x75, 0x3e, 0xc5, 0x82, 0xb1, 0xbd,
  0x2e, 0x04, 0x9e, 0xbd, 0xbb, 0x68, 0x26, 0x3e, 0xef, 0x52, 0x4d, 0x3e,
  0x7b, 0xf1, 0x31, 0x3d, 0x03, 0x3a, 0x0e, 0x3e, 0xb2, 0x59, 0x80, 0x3d,
  0x55, 0x6a, 0xee, 0x3d, 0xf6, 0x5f, 0x09, 0x3e, 0xff, 0xda, 0x01, 0xbe,
  0xb4, 0x6d, 0xcc, 0x3c, 0xf1, 0x77, 0x9d, 0xbc, 0xbd, 0xcc, 0xa9, 0xbd,
  0x90, 0x20, 0x94, 0xbd, 0x67, 0x9f, 0x64, 0xbd, 0x35, 0xfc, 0xe7, 0x3d,
  0xf1, 0xfc, 0x4f, 0xbe, 0xa1, 0xc1, 0xcd, 0xbd, 0x84, 0xcc, 0x61, 0x3e,
  0x46, 0xf9, 0x54, 0x3e, 0x33, 0x10, 0xd5, 0x3d, 0x4d, 0x1b, 0x27, 0x3e,
  0x7b, 0x94, 0x9d, 0x3d, 0x35, 0x99, 0x48, 0x3d, 0x27, 0x3d, 0x52, 0x3e,
  0xbe, 0x36, 0x2c, 0xbd, 0x21, 0x67, 0xe7, 0x3d, 0x99, 0xce, 0x8e, 0x3d,
  0x6a, 0x35, 0xd6, 0xbd, 0x95, 0x94, 0x6a, 0xbd, 0x12, 0x1b, 0xa4, 0xbd,
  0x5b, 0xe2, 0xb5, 0x3e, 0xe0, 0xe2, 0xb9, 0xbe, 0x88, 0x85, 0x25, 0xbe,
  0xce, 0xf7, 0xb1, 0x3e, 0xe0, 0xe4, 0x7e, 0x3e, 0x95, 0x80, 0x29, 0x3d,
  0x7e, 0xcc, 0xd1, 0xbd, 0x89, 0x67, 0xd1, 0xbb, 0xb1, 0x97, 0x27, 0x3e,
  0xb9, 0x99, 0x11, 0xbe, 0xa4, 0xee, 0x35, 0xbe, 0x10, 0xe3, 0xaf, 0x3b,
  0xf1, 0x46, 0x70, 0x3d, 0x63, 0x40, 0xc3, 0x3c, 0xb1, 0x2f, 0x8f, 0xbd,
  0x8c, 0x1b, 0x86, 0x3d, 0x2f, 0x66, 0xde, 0x3e, 0xd4, 0x1c, 0xb7, 0x3c,
  0x05, 0x35, 0xe4, 0xbc, 0xa5, 0x80, 0x34, 0x3e, 0x93, 0x46, 0x6d, 0x3d,
  0x26, 0xe4, 0x2c, 0x3e, 0xa8, 0x77, 0x02, 0xbe, 0x4a, 0xfe, 0xff, 0xff,
  0x10, 0x00, 0x00, 0x00, 0x05, 0x00, 0x00, 0x00, 0x14, 0x00, 0x00, 0x00,
  0x2c, 0x00, 0x00, 0x00, 0x02, 0x00, 0x00, 0x00, 0x10, 0x00, 0x00, 0x00,
  0x70, 0x00, 0x00, 0x00, 0x17, 0x00, 0x00, 0x00, 0x73, 0x65, 0x71, 0x75,
  0x65, 0x6e, 0x74, 0x69, 0x61, 0x6c, 0x2f, 0x64, 0x65, 0x6e, 0x73, 0x65,
  0x2f, 0x4d, 0x61, 0x74, 0x4d, 0x75, 0x6c, 0x00, 0x38, 0xfe, 0xff, 0xff,
  0x2e, 0xff, 0xff, 0xff, 0x04, 0x00, 0x00, 0x00, 0x08, 0x00, 0x00, 0x00,
  0xff, 0xff, 0xff, 0xff, 0x70, 0x00, 0x00, 0x00, 0x00, 0x00, 0x0e, 0x00,
  0x18, 0x00, 0x08, 0x00, 0x07, 0x00, 0x0c, 0x00, 0x10, 0x00, 0x14, 0x00,
  0x0e, 0x00, 0x00, 0x00, 0x00, 0x00, 0x00, 0x02, 0x10, 0x00, 0x00, 0x00,
  0x04, 0x00, 0x00, 0x00, 0x10, 0x00, 0x00, 0x00, 0x2c, 0x00, 0x00, 0x00,
  0x01, 0x00, 0x00, 0x00, 0x02, 0x00, 0x00, 0x00, 0x18, 0x00, 0x00, 0x00,
  0x73, 0x65, 0x71, 0x75, 0x65, 0x6e, 0x74, 0x69, 0x61, 0x6c, 0x2f, 0x66,
  0x6c, 0x61, 0x74, 0x74, 0x65, 0x6e, 0x2f, 0x43, 0x6f, 0x6e, 0x73, 0x74,
  0x00, 0x00, 0x00, 0x00, 0xa0, 0xfe, 0xff, 0xff, 0x96, 0xff, 0xff, 0xff,
  0x04, 0x00, 0x00, 0x00, 0x0c, 0x00, 0x00, 0x00, 0x9f, 0xe4, 0x35, 0xbf,
  0x56, 0x87, 0x75, 0xc0, 0xf1, 0x0c, 0x93, 0x3f, 0x0a, 0xff, 0xff, 0xff,
  0x10, 0x00, 0x00, 0x00, 0x03, 0x00, 0x00, 0x00, 0x10, 0x00, 0x00, 0x00,
  0x3c, 0x00, 0x00, 0x00, 0x01, 0x00, 0x00, 0x00, 0x03, 0x00, 0x00, 0x00,
  0x29, 0x00, 0x00, 0x00, 0x73, 0x65, 0x71, 0x75, 0x65, 0x6e, 0x74, 0x69,
  0x61, 0x6c, 0x2f, 0x64, 0x65, 0x6e, 0x73, 0x65, 0x5f, 0x31, 0x2f, 0x42,
  0x69, 0x61, 0x73, 0x41, 0x64, 0x64, 0x2f, 0x52, 0x65, 0x61, 0x64, 0x56,
  0x61, 0x72, 0x69, 0x61, 0x62, 0x6c, 0x65, 0x4f, 0x70, 0x00, 0x00, 0x00,
  0x60, 0xff, 0xff, 0xff, 0x00, 0x00, 0x06, 0x00, 0x08, 0x00, 0x04, 0x00,
  0x06, 0x00, 0x00, 0x00, 0x04, 0x00, 0x00, 0x00, 0x40, 0x00, 0x00, 0x00,
  0x06, 0xc0, 0x84, 0x3f, 0x34, 0x51, 0xa9, 0x3f, 0x40, 0x22, 0x94, 0xbd,
  0x6a, 0xa1, 0x8e, 0xbe, 0x48, 0xb3, 0x46, 0xbf, 0xe1, 0xa4, 0xf4, 0xbe,
  0x91, 0xcc, 0x4a, 0x3f, 0x4e, 0x66, 0x15, 0xbf, 0xb3, 0xd1, 0x2b, 0x3f,
  0x8a, 0x4d, 0x48, 0xbf, 0x05, 0xd5, 0xbe, 0x3f, 0xdd, 0x1e, 0xc0, 0xbb,
  0x9b, 0x00, 0x79, 0xbf, 0x3f, 0xba, 0xb5, 0x3f, 0x39, 0x3d, 0x24, 0x40,
  0xbe, 0xba, 0xa7, 0x3f, 0xae, 0xff, 0xff, 0xff, 0x10, 0x00, 0x00, 0x00,
  0x02, 0x00, 0x00, 0x00, 0x10, 0x00, 0x00, 0x00, 0x3c, 0x00, 0x00, 0x00,
  0x01, 0x00, 0x00, 0x00, 0x10, 0x00, 0x00, 0x00, 0x27, 0x00, 0x00, 0x00,
  0x73, 0x65, 0x71, 0x75, 0x65, 0x6e, 0x74, 0x69, 0x61, 0x6c, 0x2f, 0x64,
  0x65, 0x6e, 0x73, 0x65, 0x2f, 0x42, 0x69, 0x61, 0x73, 0x41, 0x64, 0x64,
  0x2f, 0x52, 0x65, 0x61, 0x64, 0x56, 0x61, 0x72, 0x69, 0x61, 0x62, 0x6c,
  0x65, 0x4f, 0x70, 0x00, 0x04, 0x00, 0x06, 0x00, 0x04, 0x00, 0x00, 0x00,
  0x00, 0x00, 0x0e, 0x00, 0x14, 0x00, 0x04, 0x00, 0x00, 0x00, 0x08, 0x00,
  0x0c, 0x00, 0x10, 0x00, 0x0e, 0x00, 0x00, 0x00, 0x10, 0x00, 0x00, 0x00,
  0x01, 0x00, 0x00, 0x00, 0x1c, 0x00, 0x00, 0x00, 0x2c, 0x00, 0x00, 0x00,
  0x04, 0x00, 0x00, 0x00, 0x01, 0x00, 0x00, 0x00, 0x40, 0x00, 0x00, 0x00,
  0x03, 0x00, 0x00, 0x00, 0x01, 0x00, 0x00, 0x00, 0x0c, 0x00, 0x00, 0x00,
  0x63, 0x6f, 0x6e, 0x76, 0x32, 0x64, 0x5f, 0x69, 0x6e, 0x70, 0x75, 0x74,
  0x00, 0x00, 0x00, 0x00, 0xfc, 0xff, 0xff, 0xff, 0x04, 0x00, 0x04, 0x00,
  0x04, 0x00, 0x00, 0x00
};
unsigned int _content_midterm_project_model_model_tflite_len = 12316;